{
  "version": "1.0",
  "truncation": null,
  "padding": null,
  "added_tokens": [
    {
      "id": 0,
      "content": "[UNK]",
      "single_word": false,
      "lstrip": false,
      "rstrip": false,
      "normalized": false,
      "special": true
    },
    {
      "id": 1,
      "content": "[CLS]",
      "single_word": false,
      "lstrip": false,
      "rstrip": false,
      "normalized": false,
      "special": true
    },
    {
      "id": 2,
      "content": "[SEP]",
      "single_word": false,
      "lstrip": false,
      "rstrip": false,
      "normalized": false,
      "special": true
    },
    {
      "id": 3,
      "content": "[PAD]",
      "single_word": false,
      "lstrip": false,
      "rstrip": false,
      "normalized": false,
      "special": true
    },
    {
      "id": 4,
      "content": "[MASK]",
      "single_word": false,
      "lstrip": false,
      "rstrip": false,
      "normalized": false,
      "special": true
    }
  ],
  "normalizer": {
    "type": "NFKC"
  },
  "pre_tokenizer": null,
  "post_processor": null,
  "decoder": null,
  "model": {
    "type": "BPE",
    "dropout": null,
    "unk_token": "[UNK]",
    "continuing_subword_prefix": null,
    "end_of_word_suffix": null,
    "fuse_unk": false,
    "byte_fallback": false,
    "ignore_merges": false,
    "vocab": {
      "[UNK]": 0,
      "[CLS]": 1,
      "[SEP]": 2,
      "[PAD]": 3,
      "[MASK]": 4,
      "\n": 5,
      " ": 6,
      "!": 7,
      "\"": 8,
      "#": 9,
      "$": 10,
      "%": 11,
      "&": 12,
      "'": 13,
      "(": 14,
      ")": 15,
      "*": 16,
      "+": 17,
      ",": 18,
      "-": 19,
      ".": 20,
      "/": 21,
      "0": 22,
      "1": 23,
      "2": 24,
      "3": 25,
      "4": 26,
      "5": 27,
      "6": 28,
      "7": 29,
      "8": 30,
      "9": 31,
      ":": 32,
      ";": 33,
      "<": 34,
      "=": 35,
      ">": 36,
      "?": 37,
      "@": 38,
      "A": 39,
      "B": 40,
      "C": 41,
      "D": 42,
      "E": 43,
      "F": 44,
      "G": 45,
      "H": 46,
      "I": 47,
      "J": 48,
      "K": 49,
      "L": 50,
      "M": 51,
      "N": 52,
      "O": 53,
      "P": 54,
      "Q": 55,
      "R": 56,
      "S": 57,
      "T": 58,
      "U": 59,
      "V": 60,
      "W": 61,
      "X": 62,
      "Y": 63,
      "Z": 64,
      "[": 65,
      "\\": 66,
      "]": 67,
      "^": 68,
      "_": 69,
      "`": 70,
      "a": 71,
      "b": 72,
      "c": 73,
      "d": 74,
      "e": 75,
      "f": 76,
      "g": 77,
      "h": 78,
      "i": 79,
      "j": 80,
      "k": 81,
      "l": 82,
      "m": 83,
      "n": 84,
      "o": 85,
      "p": 86,
      "q": 87,
      "r": 88,
      "s": 89,
      "t": 90,
      "u": 91,
      "v": 92,
      "w": 93,
      "x": 94,
      "y": 95,
      "z": 96,
      "{": 97,
      "|": 98,
      "}": 99,
      "~": 100,
      "": 101,
      "": 102,
      "": 103,
      "": 104,
      "¡": 105,
      "¢": 106,
      "£": 107,
      "¤": 108,
      "¥": 109,
      "§": 110,
      "©": 111,
      "«": 112,
      "¬": 113,
      "­": 114,
      "®": 115,
      "°": 116,
      "±": 117,
      "¶": 118,
      "·": 119,
      "»": 120,
      "¿": 121,
      "À": 122,
      "Á": 123,
      "Â": 124,
      "Ã": 125,
      "Ä": 126,
      "Å": 127,
      "Æ": 128,
      "Ç": 129,
      "È": 130,
      "É": 131,
      "Ë": 132,
      "Í": 133,
      "Î": 134,
      "Ï": 135,
      "Ð": 136,
      "Ñ": 137,
      "Ò": 138,
      "Ó": 139,
      "Õ": 140,
      "Ö": 141,
      "×": 142,
      "Ø": 143,
      "Ú": 144,
      "Û": 145,
      "Ü": 146,
      "Ý": 147,
      "Þ": 148,
      "ß": 149,
      "à": 150,
      "á": 151,
      "â": 152,
      "ã": 153,
      "ä": 154,
      "å": 155,
      "æ": 156,
      "ç": 157,
      "è": 158,
      "é": 159,
      "ê": 160,
      "ë": 161,
      "ì": 162,
      "í": 163,
      "î": 164,
      "ï": 165,
      "ð": 166,
      "ñ": 167,
      "ò": 168,
      "ó": 169,
      "ô": 170,
      "õ": 171,
      "ö": 172,
      "÷": 173,
      "ø": 174,
      "ù": 175,
      "ú": 176,
      "û": 177,
      "ü": 178,
      "ý": 179,
      "þ": 180,
      "Ā": 181,
      "ā": 182,
      "Ă": 183,
      "ă": 184,
      "ą": 185,
      "Ć": 186,
      "ć": 187,
      "Ĉ": 188,
      "ĉ": 189,
      "Č": 190,
      "č": 191,
      "ď": 192,
      "Đ": 193,
      "đ": 194,
      "ē": 195,
      "ĕ": 196,
      "ė": 197,
      "Ę": 198,
      "ę": 199,
      "ě": 200,
      "Ĝ": 201,
      "ĝ": 202,
      "ğ": 203,
      "ġ": 204,
      "ģ": 205,
      "ħ": 206,
      "Ĩ": 207,
      "ĩ": 208,
      "ī": 209,
      "Ĭ": 210,
      "Į": 211,
      "į": 212,
      "İ": 213,
      "ı": 214,
      "ķ": 215,
      "Ĺ": 216,
      "ĺ": 217,
      "Ļ": 218,
      "ļ": 219,
      "ľ": 220,
      "ł": 221,
      "ń": 222,
      "ņ": 223,
      "ň": 224,
      "ŋ": 225,
      "Ō": 226,
      "ō": 227,
      "ő": 228,
      "œ": 229,
      "ŗ": 230,
      "ř": 231,
      "Ś": 232,
      "ś": 233,
      "Ş": 234,
      "ş": 235,
      "Š": 236,
      "š": 237,
      "Ţ": 238,
      "ţ": 239,
      "ť": 240,
      "ū": 241,
      "Ŭ": 242,
      "ŭ": 243,
      "ů": 244,
      "ű": 245,
      "ų": 246,
      "Ź": 247,
      "ź": 248,
      "Ż": 249,
      "ż": 250,
      "Ž": 251,
      "ž": 252,
      "ƃ": 253,
      "Ɖ": 254,
      "ƒ": 255,
      "Ɩ": 256,
      "Ơ": 257,
      "ƪ": 258,
      "ư": 259,
      "ƽ": 260,
      "ǎ": 261,
      "ǐ": 262,
      "ǒ": 263,
      "ǖ": 264,
      "Ǘ": 265,
      "ǝ": 266,
      "ǣ": 267,
      "Ǫ": 268,
      "ǫ": 269,
      "ǹ": 270,
      "ȇ": 271,
      "ȏ": 272,
      "Ȓ": 273,
      "Ȗ": 274,
      "Ș": 275,
      "ș": 276,
      "Ț": 277,
      "ț": 278,
      "ȝ": 279,
      "Ȧ": 280,
      "ȩ": 281,
      "ȯ": 282,
      "Ƀ": 283,
      "Ɍ": 284,
      "ɐ": 285,
      "ɑ": 286,
      "ɔ": 287,
      "ə": 288,
      "ɛ": 289,
      "ɟ": 290,
      "ɣ": 291,
      "ɥ": 292,
      "ɨ": 293,
      "ɪ": 294,
      "ɯ": 295,
      "ɴ": 296,
      "ɷ": 297,
      "ɹ": 298,
      "ɾ": 299,
      "ʀ": 300,
      "ʂ": 301,
      "ʃ": 302,
      "ʅ": 303,
      "ʇ": 304,
      "ʈ": 305,
      "ʊ": 306,
      "ʌ": 307,
      "ʍ": 308,
      "ʎ": 309,
      "ʏ": 310,
      "ʐ": 311,
      "ʒ": 312,
      "ʔ": 313,
      "ʕ": 314,
      "ʖ": 315,
      "ʘ": 316,
      "ʙ": 317,
      "ʞ": 318,
      "ʟ": 319,
      "ʡ": 320,
      "ʢ": 321,
      "ʤ": 322,
      "ʦ": 323,
      "ʧ": 324,
      "ʻ": 325,
      "ʼ": 326,
      "ʾ": 327,
      "ˀ": 328,
      "ˆ": 329,
      "ˈ": 330,
      "ˉ": 331,
      "ˊ": 332,
      "ˋ": 333,
      "ˌ": 334,
      "ː": 335,
      "˖": 336,
      "˥": 337,
      "̀": 338,
      "́": 339,
      "̂": 340,
      "̃": 341,
      "̄": 342,
      "̅": 343,
      "̆": 344,
      "̇": 345,
      "̈": 346,
      "̉": 347,
      "̊": 348,
      "̋": 349,
      "̌": 350,
      "̍": 351,
      "̎": 352,
      "̏": 353,
      "̐": 354,
      "̑": 355,
      "̒": 356,
      "̓": 357,
      "̔": 358,
      "̕": 359,
      "̖": 360,
      "̗": 361,
      "̘": 362,
      "̙": 363,
      "̚": 364,
      "̛": 365,
      "̜": 366,
      "̝": 367,
      "̞": 368,
      "̟": 369,
      "̠": 370,
      "̡": 371,
      "̢": 372,
      "̣": 373,
      "̤": 374,
      "̥": 375,
      "̦": 376,
      "̧": 377,
      "̨": 378,
      "̩": 379,
      "̪": 380,
      "̫": 381,
      "̬": 382,
      "̭": 383,
      "̮": 384,
      "̯": 385,
      "̰": 386,
      "̱": 387,
      "̲": 388,
      "̳": 389,
      "̴": 390,
      "̵": 391,
      "̶": 392,
      "̷": 393,
      "̸": 394,
      "̹": 395,
      "̺": 396,
      "̻": 397,
      "̼": 398,
      "̽": 399,
      "̾": 400,
      "̿": 401,
      "͂": 402,
      "ͅ": 403,
      "͆": 404,
      "͇": 405,
      "͈": 406,
      "͉": 407,
      "͊": 408,
      "͋": 409,
      "͌": 410,
      "͍": 411,
      "͎": 412,
      "͏": 413,
      "͐": 414,
      "͑": 415,
      "͒": 416,
      "͓": 417,
      "͔": 418,
      "͕": 419,
      "͖": 420,
      "͗": 421,
      "͘": 422,
      "͙": 423,
      "͚": 424,
      "͛": 425,
      "͜": 426,
      "͝": 427,
      "͞": 428,
      "͟": 429,
      "͠": 430,
      "͡": 431,
      "͢": 432,
      "ͣ": 433,
      "ͤ": 434,
      "ͥ": 435,
      "ͦ": 436,
      "ͧ": 437,
      "ͨ": 438,
      "ͩ": 439,
      "ͪ": 440,
      "ͫ": 441,
      "ͬ": 442,
      "ͭ": 443,
      "ͮ": 444,
      "ͯ": 445,
      "Ά": 446,
      "Έ": 447,
      "Ό": 448,
      "Α": 449,
      "Β": 450,
      "Γ": 451,
      "Δ": 452,
      "Ε": 453,
      "Ζ": 454,
      "Η": 455,
      "Θ": 456,
      "Ι": 457,
      "Κ": 458,
      "Λ": 459,
      "Μ": 460,
      "Ν": 461,
      "Ξ": 462,
      "Ο": 463,
      "Π": 464,
      "Ρ": 465,
      "Σ": 466,
      "Τ": 467,
      "Υ": 468,
      "Φ": 469,
      "Χ": 470,
      "Ψ": 471,
      "Ω": 472,
      "ά": 473,
      "έ": 474,
      "ή": 475,
      "ί": 476,
      "α": 477,
      "β": 478,
      "γ": 479,
      "δ": 480,
      "ε": 481,
      "ζ": 482,
      "η": 483,
      "θ": 484,
      "ι": 485,
      "κ": 486,
      "λ": 487,
      "μ": 488,
      "ν": 489,
      "ξ": 490,
      "ο": 491,
      "π": 492,
      "ρ": 493,
      "ς": 494,
      "σ": 495,
      "τ": 496,
      "υ": 497,
      "φ": 498,
      "χ": 499,
      "ψ": 500,
      "ω": 501,
      "ϊ": 502,
      "ϋ": 503,
      "ό": 504,
      "ύ": 505,
      "ώ": 506,
      "Ѕ": 507,
      "Ћ": 508,
      "А": 509,
      "Б": 510,
      "В": 511,
      "Г": 512,
      "Д": 513,
      "Е": 514,
      "Ж": 515,
      "З": 516,
      "И": 517,
      "К": 518,
      "Л": 519,
      "М": 520,
      "Н": 521,
      "О": 522,
      "П": 523,
      "Р": 524,
      "С": 525,
      "Т": 526,
      "У": 527,
      "Ф": 528,
      "Х": 529,
      "Ц": 530,
      "Ч": 531,
      "Ш": 532,
      "Щ": 533,
      "Ъ": 534,
      "Э": 535,
      "Ю": 536,
      "Я": 537,
      "а": 538,
      "б": 539,
      "в": 540,
      "г": 541,
      "д": 542,
      "е": 543,
      "ж": 544,
      "з": 545,
      "и": 546,
      "й": 547,
      "к": 548,
      "л": 549,
      "м": 550,
      "н": 551,
      "о": 552,
      "п": 553,
      "р": 554,
      "с": 555,
      "т": 556,
      "у": 557,
      "ф": 558,
      "х": 559,
      "ц": 560,
      "ч": 561,
      "ш": 562,
      "щ": 563,
      "ъ": 564,
      "ы": 565,
      "ь": 566,
      "э": 567,
      "ю": 568,
      "я": 569,
      "ё": 570,
      "ђ": 571,
      "є": 572,
      "ѕ": 573,
      "і": 574,
      "ј": 575,
      "љ": 576,
      "њ": 577,
      "Ѭ": 578,
      "҈": 579,
      "҉": 580,
      "ғ": 581,
      "ү": 582,
      "һ": 583,
      "Ө": 584,
      "Ԁ": 585,
      "ԁ": 586,
      "Ք": 587,
      "ְ": 588,
      "ֲ": 589,
      "ִ": 590,
      "ֵ": 591,
      "ֶ": 592,
      "ָ": 593,
      "ֹ": 594,
      "ֻ": 595,
      "ּ": 596,
      "א": 597,
      "ב": 598,
      "ג": 599,
      "ד": 600,
      "ה": 601,
      "ו": 602,
      "ז": 603,
      "ח": 604,
      "ט": 605,
      "י": 606,
      "ך": 607,
      "כ": 608,
      "ל": 609,
      "ם": 610,
      "מ": 611,
      "ן": 612,
      "נ": 613,
      "ס": 614,
      "ע": 615,
      "ף": 616,
      "פ": 617,
      "ץ": 618,
      "צ": 619,
      "ק": 620,
      "ר": 621,
      "ש": 622,
      "ת": 623,
      "؛": 624,
      "؟": 625,
      "ء": 626,
      "أ": 627,
      "إ": 628,
      "ئ": 629,
      "ا": 630,
      "ب": 631,
      "ة": 632,
      "ت": 633,
      "ث": 634,
      "ج": 635,
      "ح": 636,
      "خ": 637,
      "د": 638,
      "ذ": 639,
      "ر": 640,
      "ز": 641,
      "س": 642,
      "ش": 643,
      "ص": 644,
      "ض": 645,
      "ط": 646,
      "ع": 647,
      "غ": 648,
      "ف": 649,
      "ق": 650,
      "ك": 651,
      "ل": 652,
      "م": 653,
      "ن": 654,
      "ه": 655,
      "و": 656,
      "ى": 657,
      "ي": 658,
      "٩": 659,
      "پ": 660,
      "چ": 661,
      "ک": 662,
      "گ": 663,
      "ی": 664,
      "ۜ": 665,
      "ۣ": 666,
      "ं": 667,
      "क": 668,
      "ख": 669,
      "ग": 670,
      "घ": 671,
      "छ": 672,
      "ट": 673,
      "ड": 674,
      "त": 675,
      "द": 676,
      "ध": 677,
      "न": 678,
      "प": 679,
      "भ": 680,
      "म": 681,
      "य": 682,
      "र": 683,
      "ल": 684,
      "ष": 685,
      "स": 686,
      "ह": 687,
      "़": 688,
      "ा": 689,
      "ि": 690,
      "ी": 691,
      "ु": 692,
      "ू": 693,
      "ृ": 694,
      "े": 695,
      "ै": 696,
      "ो": 697,
      "्": 698,
      "ॐ": 699,
      "।": 700,
      "ଠ": 701,
      "୧": 702,
      "୨": 703,
      "இ": 704,
      "எ": 705,
      "ஓ": 706,
      "க": 707,
      "ங": 708,
      "ச": 709,
      "ட": 710,
      "ண": 711,
      "த": 712,
      "ந": 713,
      "ன": 714,
      "ப": 715,
      "ம": 716,
      "ர": 717,
      "ல": 718,
      "ள": 719,
      "வ": 720,
      "ி": 721,
      "ு": 722,
      "ூ": 723,
      "ே": 724,
      "ோ": 725,
      "்": 726,
      "ం": 727,
      "క": 728,
      "జ": 729,
      "డ": 730,
      "ల": 731,
      "ా": 732,
      "ు": 733,
      "ొ": 734,
      "౦": 735,
      "ಗ": 736,
      "ಠ": 737,
      "ಥ": 738,
      "ರ": 739,
      "ಾ": 740,
      "ೃ": 741,
      "෴": 742,
      "ก": 743,
      "ง": 744,
      "จ": 745,
      "ฎ": 746,
      "ฏ": 747,
      "ด": 748,
      "ต": 749,
      "บ": 750,
      "ป": 751,
      "ส": 752,
      "อ": 753,
      "฿": 754,
      "็": 755,
      "้": 756,
      "๏": 757,
      "๖": 758,
      "ຈ": 759,
      "ຶ": 760,
      "༎": 761,
      "༼": 762,
      "༽": 763,
      "ა": 764,
      "ბ": 765,
      "დ": 766,
      "ი": 767,
      "ლ": 768,
      "მ": 769,
      "ო": 770,
      "ᄅ": 771,
      "ᄆ": 772,
      "ᄇ": 773,
      "ᄋ": 774,
      "ᄏ": 775,
      "ᅠ": 776,
      "ᅡ": 777,
      "ᅥ": 778,
      "ᅲ": 779,
      "Ꮇ": 780,
      "ᐛ": 781,
      "ᕕ": 782,
      "ᕗ": 783,
      "ᕤ": 784,
      "ᕦ": 785,
      "ᗡ": 786,
      "ᴀ": 787,
      "ᴄ": 788,
      "ᴅ": 789,
      "ᴇ": 790,
      "ᴉ": 791,
      "ᴍ": 792,
      "ᴏ": 793,
      "ᴖ": 794,
      "ᴗ": 795,
      "ᴘ": 796,
      "ᴛ": 797,
      "ᴜ": 798,
      "ᴠ": 799,
      "ᴡ": 800,
      "ᴥ": 801,
      "ḍ": 802,
      "ḓ": 803,
      "ḙ": 804,
      "Ḟ": 805,
      "ḥ": 806,
      "ḩ": 807,
      "Ḭ": 808,
      "ḭ": 809,
      "ḯ": 810,
      "ḻ": 811,
      "Ḽ": 812,
      "ḿ": 813,
      "ṁ": 814,
      "Ṃ": 815,
      "ṇ": 816,
      "ṋ": 817,
      "ṕ": 818,
      "ṟ": 819,
      "Ṡ": 820,
      "ṭ": 821,
      "Ṯ": 822,
      "Ṷ": 823,
      "ẉ": 824,
      "ẗ": 825,
      "ạ": 826,
      "ả": 827,
      "ấ": 828,
      "ắ": 829,
      "ẹ": 830,
      "Ế": 831,
      "ỉ": 832,
      "Ọ": 833,
      "ọ": 834,
      "ố": 835,
      "ộ": 836,
      "ờ": 837,
      "ở": 838,
      "Ủ": 839,
      "ứ": 840,
      "ừ": 841,
      "ữ": 842,
      "ἀ": 843,
      "ἄ": 844,
      "Ἀ": 845,
      "ἐ": 846,
      "ἦ": 847,
      "ὁ": 848,
      "ὡ": 849,
      "ὰ": 850,
      "ὴ": 851,
      "ὶ": 852,
      "ὸ": 853,
      "ὼ": 854,
      "ᾶ": 855,
      "ῆ": 856,
      "ῖ": 857,
      "ῶ": 858,
      "​": 859,
      "‌": 860,
      "‎": 861,
      "‏": 862,
      "‐": 863,
      "‒": 864,
      "–": 865,
      "—": 866,
      "―": 867,
      "‘": 868,
      "’": 869,
      "‚": 870,
      "“": 871,
      "”": 872,
      "„": 873,
      "†": 874,
      "‡": 875,
      "•": 876,
      " ": 877,
      "‪": 878,
      "‬": 879,
      "‭": 880,
      "‰": 881,
      "′": 882,
      "‸": 883,
      "›": 884,
      "‽": 885,
      "‿": 886,
      "⁄": 887,
      "⁡": 888,
      "⁢": 889,
      "₣": 890,
      "₤": 891,
      "₩": 892,
      "€": 893,
      "₮": 894,
      "₹": 895,
      "℘": 896,
      "ↀ": 897,
      "←": 898,
      "↑": 899,
      "→": 900,
      "↓": 901,
      "↩": 902,
      "↵": 903,
      "↼": 904,
      "⇌": 905,
      "⇒": 906,
      "⇔": 907,
      "⇨": 908,
      "∀": 909,
      "∂": 910,
      "∃": 911,
      "∅": 912,
      "∆": 913,
      "∈": 914,
      "∉": 915,
      "∏": 916,
      "∑": 917,
      "−": 918,
      "√": 919,
      "∝": 920,
      "∞": 921,
      "∧": 922,
      "∩": 923,
      "∪": 924,
      "∫": 925,
      "∴": 926,
      "∼": 927,
      "≅": 928,
      "≈": 929,
      "≊": 930,
      "≠": 931,
      "≡": 932,
      "≤": 933,
      "≥": 934,
      "≦": 935,
      "≧": 936,
      "≫": 937,
      "≳": 938,
      "⊂": 939,
      "⊃": 940,
      "⊆": 941,
      "⊊": 942,
      "⊙": 943,
      "⊬": 944,
      "⋃": 945,
      "⋆": 946,
      "⌀": 947,
      "⌊": 948,
      "⌋": 949,
      "⌐": 950,
      "⌒": 951,
      "⌓": 952,
      "⌘": 953,
      "⌣": 954,
      "⍌": 955,
      "⎨": 956,
      "⏝": 957,
      "─": 958,
      "━": 959,
      "│": 960,
      "┊": 961,
      "┌": 962,
      "┐": 963,
      "└": 964,
      "┘": 965,
      "┛": 966,
      "├": 967,
      "┤": 968,
      "┬": 969,
      "┳": 970,
      "┴": 971,
      "┻": 972,
      "┼": 973,
      "═": 974,
      "║": 975,
      "╓": 976,
      "╔": 977,
      "╗": 978,
      "╚": 979,
      "╝": 980,
      "╩": 981,
      "╭": 982,
      "╮": 983,
      "╯": 984,
      "╱": 985,
      "╹": 986,
      "▀": 987,
      "▂": 988,
      "▃": 989,
      "▄": 990,
      "▇": 991,
      "█": 992,
      "▌": 993,
      "▐": 994,
      "░": 995,
      "▓": 996,
      "■": 997,
      "□": 998,
      "▬": 999,
      "▰": 1000,
      "▲": 1001,
      "△": 1002,
      "▶": 1003,
      "►": 1004,
      "▼": 1005,
      "▽": 1006,
      "▾": 1007,
      "◀": 1008,
      "◇": 1009,
      "◉": 1010,
      "○": 1011,
      "◎": 1012,
      "●": 1013,
      "◔": 1014,
      "◕": 1015,
      "◠": 1016,
      "◡": 1017,
      "◢": 1018,
      "◣": 1019,
      "◤": 1020,
      "◥": 1021,
      "◾": 1022,
      "☀": 1023,
      "★": 1024,
      "☆": 1025,
      "☉": 1026,
      "☑": 1027,
      "☕": 1028,
      "☜": 1029,
      "☝": 1030,
      "☞": 1031,
      "☠": 1032,
      "☣": 1033,
      "☨": 1034,
      "☬": 1035,
      "☮": 1036,
      "☯": 1037,
      "☹": 1038,
      "☺": 1039,
      "☻": 1040,
      "☼": 1041,
      "♀": 1042,
      "♂": 1043,
      "♠": 1044,
      "♡": 1045,
      "♥": 1046,
      "♦": 1047,
      "♪": 1048,
      "♫": 1049,
      "♬": 1050,
      "♭": 1051,
      "♯": 1052,
      "⚆": 1053,
      "⚦": 1054,
      "✅": 1055,
      "✊": 1056,
      "✌": 1057,
      "✍": 1058,
      "✑": 1059,
      "✓": 1060,
      "✔": 1061,
      "✘": 1062,
      "✝": 1063,
      "✧": 1064,
      "✨": 1065,
      "✩": 1066,
      "✭": 1067,
      "✯": 1068,
      "✿": 1069,
      "❀": 1070,
      "❏": 1071,
      "❣": 1072,
      "❤": 1073,
      "➔": 1074,
      "➛": 1075,
      "➡": 1076,
      "⟀": 1077,
      "⟂": 1078,
      "⟄": 1079,
      "⟆": 1080,
      "⟖": 1081,
      "⟗": 1082,
      "⟚": 1083,
      "⟡": 1084,
      "⟢": 1085,
      "⟶": 1086,
      "⠀": 1087,
      "⬆": 1088,
      "⭐": 1089,
      "⸌": 1090,
      "⸍": 1091,
      "、": 1092,
      "。": 1093,
      "々": 1094,
      "〈": 1095,
      "〉": 1096,
      "《": 1097,
      "》": 1098,
      "「": 1099,
      "」": 1100,
      "『": 1101,
      "』": 1102,
      "【": 1103,
      "】": 1104,
      "〘": 1105,
      "〜": 1106,
      "〠": 1107,
      "〳": 1108,
      "〵": 1109,
      "ぁ": 1110,
      "あ": 1111,
      "い": 1112,
      "う": 1113,
      "え": 1114,
      "お": 1115,
      "か": 1116,
      "が": 1117,
      "き": 1118,
      "ぎ": 1119,
      "く": 1120,
      "け": 1121,
      "げ": 1122,
      "こ": 1123,
      "ご": 1124,
      "さ": 1125,
      "ざ": 1126,
      "し": 1127,
      "じ": 1128,
      "す": 1129,
      "ず": 1130,
      "せ": 1131,
      "ぜ": 1132,
      "そ": 1133,
      "ぞ": 1134,
      "た": 1135,
      "だ": 1136,
      "ち": 1137,
      "ぢ": 1138,
      "っ": 1139,
      "つ": 1140,
      "づ": 1141,
      "て": 1142,
      "で": 1143,
      "と": 1144,
      "ど": 1145,
      "な": 1146,
      "に": 1147,
      "ね": 1148,
      "の": 1149,
      "は": 1150,
      "ば": 1151,
      "ぱ": 1152,
      "ひ": 1153,
      "び": 1154,
      "ふ": 1155,
      "ぶ": 1156,
      "へ": 1157,
      "べ": 1158,
      "ぼ": 1159,
      "ぽ": 1160,
      "ま": 1161,
      "み": 1162,
      "む": 1163,
      "め": 1164,
      "も": 1165,
      "ゃ": 1166,
      "や": 1167,
      "ゅ": 1168,
      "ゆ": 1169,
      "ょ": 1170,
      "よ": 1171,
      "ら": 1172,
      "り": 1173,
      "る": 1174,
      "れ": 1175,
      "ろ": 1176,
      "わ": 1177,
      "を": 1178,
      "ん": 1179,
      "゚": 1180,
      "ゝ": 1181,
      "ァ": 1182,
      "ア": 1183,
      "ィ": 1184,
      "イ": 1185,
      "ゥ": 1186,
      "ウ": 1187,
      "ェ": 1188,
      "エ": 1189,
      "オ": 1190,
      "カ": 1191,
      "ガ": 1192,
      "キ": 1193,
      "ギ": 1194,
      "ク": 1195,
      "グ": 1196,
      "ケ": 1197,
      "ゲ": 1198,
      "コ": 1199,
      "ゴ": 1200,
      "サ": 1201,
      "ザ": 1202,
      "シ": 1203,
      "ジ": 1204,
      "ス": 1205,
      "ズ": 1206,
      "セ": 1207,
      "ゼ": 1208,
      "ソ": 1209,
      "ゾ": 1210,
      "タ": 1211,
      "ダ": 1212,
      "チ": 1213,
      "ッ": 1214,
      "ツ": 1215,
      "テ": 1216,
      "デ": 1217,
      "ト": 1218,
      "ド": 1219,
      "ナ": 1220,
      "ニ": 1221,
      "ネ": 1222,
      "ノ": 1223,
      "ハ": 1224,
      "バ": 1225,
      "パ": 1226,
      "ヒ": 1227,
      "ビ": 1228,
      "ピ": 1229,
      "フ": 1230,
      "ブ": 1231,
      "プ": 1232,
      "ヘ": 1233,
      "ベ": 1234,
      "ペ": 1235,
      "ボ": 1236,
      "ポ": 1237,
      "マ": 1238,
      "ミ": 1239,
      "ム": 1240,
      "メ": 1241,
      "モ": 1242,
      "ャ": 1243,
      "ヤ": 1244,
      "ュ": 1245,
      "ユ": 1246,
      "ョ": 1247,
      "ヨ": 1248,
      "ラ": 1249,
      "リ": 1250,
      "ル": 1251,
      "レ": 1252,
      "ロ": 1253,
      "ヮ": 1254,
      "ワ": 1255,
      "ン": 1256,
      "ヴ": 1257,
      "ヶ": 1258,
      "・": 1259,
      "ー": 1260,
      "ヽ": 1261,
      "ヾ": 1262,
      "ㄅ": 1263,
      "ㄆ": 1264,
      "ㄇ": 1265,
      "ㄈ": 1266,
      "ㄎ": 1267,
      "ㄔ": 1268,
      "ㄕ": 1269,
      "一": 1270,
      "丁": 1271,
      "七": 1272,
      "万": 1273,
      "三": 1274,
      "上": 1275,
      "下": 1276,
      "不": 1277,
      "世": 1278,
      "业": 1279,
      "両": 1280,
      "两": 1281,
      "並": 1282,
      "个": 1283,
      "中": 1284,
      "丶": 1285,
      "为": 1286,
      "主": 1287,
      "久": 1288,
      "么": 1289,
      "义": 1290,
      "之": 1291,
      "九": 1292,
      "也": 1293,
      "了": 1294,
      "事": 1295,
      "二": 1296,
      "互": 1297,
      "五": 1298,
      "井": 1299,
      "亚": 1300,
      "些": 1301,
      "交": 1302,
      "享": 1303,
      "京": 1304,
      "人": 1305,
      "什": 1306,
      "仁": 1307,
      "今": 1308,
      "仓": 1309,
      "他": 1310,
      "代": 1311,
      "以": 1312,
      "们": 1313,
      "件": 1314,
      "任": 1315,
      "休": 1316,
      "会": 1317,
      "伝": 1318,
      "伯": 1319,
      "但": 1320,
      "住": 1321,
      "何": 1322,
      "作": 1323,
      "你": 1324,
      "佬": 1325,
      "使": 1326,
      "例": 1327,
      "供": 1328,
      "侠": 1329,
      "価": 1330,
      "便": 1331,
      "保": 1332,
      "修": 1333,
      "俳": 1334,
      "俺": 1335,
      "個": 1336,
      "們": 1337,
      "倫": 1338,
      "假": 1339,
      "偉": 1340,
      "做": 1341,
      "側": 1342,
      "傻": 1343,
      "働": 1344,
      "像": 1345,
      "僕": 1346,
      "儲": 1347,
      "儿": 1348,
      "元": 1349,
      "兄": 1350,
      "充": 1351,
      "先": 1352,
      "光": 1353,
      "児": 1354,
      "兒": 1355,
      "兔": 1356,
      "入": 1357,
      "全": 1358,
      "八": 1359,
      "公": 1360,
      "六": 1361,
      "共": 1362,
      "关": 1363,
      "兴": 1364,
      "典": 1365,
      "内": 1366,
      "再": 1367,
      "农": 1368,
      "冬": 1369,
      "决": 1370,
      "几": 1371,
      "凰": 1372,
      "凸": 1373,
      "出": 1374,
      "分": 1375,
      "切": 1376,
      "初": 1377,
      "別": 1378,
      "利": 1379,
      "别": 1380,
      "到": 1381,
      "前": 1382,
      "剣": 1383,
      "剤": 1384,
      "劇": 1385,
      "力": 1386,
      "办": 1387,
      "加": 1388,
      "劣": 1389,
      "动": 1390,
      "助": 1391,
      "勇": 1392,
      "勉": 1393,
      "動": 1394,
      "包": 1395,
      "化": 1396,
      "北": 1397,
      "区": 1398,
      "十": 1399,
      "华": 1400,
      "协": 1401,
      "卐": 1402,
      "卒": 1403,
      "卡": 1404,
      "危": 1405,
      "卵": 1406,
      "压": 1407,
      "厌": 1408,
      "原": 1409,
      "去": 1410,
      "参": 1411,
      "友": 1412,
      "反": 1413,
      "取": 1414,
      "受": 1415,
      "变": 1416,
      "口": 1417,
      "古": 1418,
      "句": 1419,
      "只": 1420,
      "可": 1421,
      "台": 1422,
      "史": 1423,
      "右": 1424,
      "号": 1425,
      "合": 1426,
      "吉": 1427,
      "同": 1428,
      "名": 1429,
      "后": 1430,
      "吐": 1431,
      "向": 1432,
      "吗": 1433,
      "君": 1434,
      "否": 1435,
      "吧": 1436,
      "吳": 1437,
      "吸": 1438,
      "吾": 1439,
      "员": 1440,
      "周": 1441,
      "呼": 1442,
      "命": 1443,
      "和": 1444,
      "品": 1445,
      "哥": 1446,
      "哪": 1447,
      "唱": 1448,
      "商": 1449,
      "啊": 1450,
      "問": 1451,
      "啥": 1452,
      "啦": 1453,
      "善": 1454,
      "喜": 1455,
      "営": 1456,
      "四": 1457,
      "回": 1458,
      "国": 1459,
      "图": 1460,
      "圈": 1461,
      "國": 1462,
      "園": 1463,
      "土": 1464,
      "圣": 1465,
      "在": 1466,
      "地": 1467,
      "坊": 1468,
      "坏": 1469,
      "型": 1470,
      "城": 1471,
      "基": 1472,
      "堂": 1473,
      "堭": 1474,
      "報": 1475,
      "場": 1476,
      "境": 1477,
      "増": 1478,
      "墹": 1479,
      "士": 1480,
      "壬": 1481,
      "変": 1482,
      "夏": 1483,
      "外": 1484,
      "多": 1485,
      "夜": 1486,
      "夢": 1487,
      "大": 1488,
      "天": 1489,
      "太": 1490,
      "央": 1491,
      "失": 1492,
      "奇": 1493,
      "奨": 1494,
      "女": 1495,
      "好": 1496,
      "如": 1497,
      "妈": 1498,
      "妖": 1499,
      "妙": 1500,
      "姆": 1501,
      "始": 1502,
      "姓": 1503,
      "姿": 1504,
      "嫉": 1505,
      "嫌": 1506,
      "子": 1507,
      "字": 1508,
      "孝": 1509,
      "季": 1510,
      "学": 1511,
      "孩": 1512,
      "它": 1513,
      "宅": 1514,
      "守": 1515,
      "安": 1516,
      "宋": 1517,
      "完": 1518,
      "宗": 1519,
      "定": 1520,
      "宜": 1521,
      "宝": 1522,
      "実": 1523,
      "室": 1524,
      "家": 1525,
      "容": 1526,
      "宿": 1527,
      "寄": 1528,
      "寒": 1529,
      "察": 1530,
      "寡": 1531,
      "对": 1532,
      "対": 1533,
      "對": 1534,
      "小": 1535,
      "少": 1536,
      "就": 1537,
      "尸": 1538,
      "尽": 1539,
      "局": 1540,
      "届": 1541,
      "屌": 1542,
      "屍": 1543,
      "山": 1544,
      "岛": 1545,
      "巨": 1546,
      "己": 1547,
      "已": 1548,
      "市": 1549,
      "布": 1550,
      "帅": 1551,
      "帯": 1552,
      "常": 1553,
      "幫": 1554,
      "干": 1555,
      "平": 1556,
      "年": 1557,
      "库": 1558,
      "应": 1559,
      "座": 1560,
      "建": 1561,
      "开": 1562,
      "式": 1563,
      "引": 1564,
      "弟": 1565,
      "张": 1566,
      "張": 1567,
      "強": 1568,
      "当": 1569,
      "彡": 1570,
      "形": 1571,
      "待": 1572,
      "很": 1573,
      "後": 1574,
      "従": 1575,
      "得": 1576,
      "御": 1577,
      "復": 1578,
      "微": 1579,
      "徳": 1580,
      "德": 1581,
      "心": 1582,
      "必": 1583,
      "忘": 1584,
      "忠": 1585,
      "念": 1586,
      "怎": 1587,
      "思": 1588,
      "怠": 1589,
      "急": 1590,
      "性": 1591,
      "怪": 1592,
      "恋": 1593,
      "悪": 1594,
      "情": 1595,
      "惰": 1596,
      "想": 1597,
      "意": 1598,
      "愚": 1599,
      "愛": 1600,
      "感": 1601,
      "慣": 1602,
      "我": 1603,
      "或": 1604,
      "战": 1605,
      "戦": 1606,
      "户": 1607,
      "戸": 1608,
      "戻": 1609,
      "所": 1610,
      "扉": 1611,
      "手": 1612,
      "扱": 1613,
      "扶": 1614,
      "找": 1615,
      "技": 1616,
      "択": 1617,
      "担": 1618,
      "拉": 1619,
      "拙": 1620,
      "持": 1621,
      "捉": 1622,
      "掌": 1623,
      "接": 1624,
      "推": 1625,
      "提": 1626,
      "損": 1627,
      "携": 1628,
      "摯": 1629,
      "撞": 1630,
      "播": 1631,
      "支": 1632,
      "放": 1633,
      "教": 1634,
      "散": 1635,
      "数": 1636,
      "敷": 1637,
      "數": 1638,
      "文": 1639,
      "斕": 1640,
      "斗": 1641,
      "料": 1642,
      "断": 1643,
      "斯": 1644,
      "新": 1645,
      "方": 1646,
      "施": 1647,
      "旁": 1648,
      "无": 1649,
      "日": 1650,
      "旦": 1651,
      "旨": 1652,
      "早": 1653,
      "时": 1654,
      "明": 1655,
      "星": 1656,
      "映": 1657,
      "春": 1658,
      "是": 1659,
      "显": 1660,
      "時": 1661,
      "晒": 1662,
      "晩": 1663,
      "普": 1664,
      "智": 1665,
      "暂": 1666,
      "暴": 1667,
      "曜": 1668,
      "曰": 1669,
      "更": 1670,
      "書": 1671,
      "最": 1672,
      "會": 1673,
      "月": 1674,
      "有": 1675,
      "朋": 1676,
      "服": 1677,
      "朕": 1678,
      "朝": 1679,
      "木": 1680,
      "末": 1681,
      "本": 1682,
      "权": 1683,
      "来": 1684,
      "杰": 1685,
      "東": 1686,
      "松": 1687,
      "板": 1688,
      "果": 1689,
      "架": 1690,
      "查": 1691,
      "査": 1692,
      "校": 1693,
      "样": 1694,
      "根": 1695,
      "格": 1696,
      "桁": 1697,
      "案": 1698,
      "桑": 1699,
      "梅": 1700,
      "梯": 1701,
      "検": 1702,
      "楚": 1703,
      "業": 1704,
      "楼": 1705,
      "楽": 1706,
      "構": 1707,
      "様": 1708,
      "模": 1709,
      "樣": 1710,
      "権": 1711,
      "機": 1712,
      "次": 1713,
      "歌": 1714,
      "止": 1715,
      "正": 1716,
      "歯": 1717,
      "歳": 1718,
      "死": 1719,
      "残": 1720,
      "段": 1721,
      "殺": 1722,
      "殻": 1723,
      "毁": 1724,
      "毋": 1725,
      "母": 1726,
      "毎": 1727,
      "毒": 1728,
      "比": 1729,
      "毕": 1730,
      "毛": 1731,
      "民": 1732,
      "気": 1733,
      "水": 1734,
      "汀": 1735,
      "求": 1736,
      "汇": 1737,
      "池": 1738,
      "決": 1739,
      "沉": 1740,
      "没": 1741,
      "河": 1742,
      "況": 1743,
      "法": 1744,
      "泣": 1745,
      "注": 1746,
      "洲": 1747,
      "活": 1748,
      "派": 1749,
      "流": 1750,
      "浮": 1751,
      "海": 1752,
      "清": 1753,
      "港": 1754,
      "湖": 1755,
      "溫": 1756,
      "滅": 1757,
      "漂": 1758,
      "演": 1759,
      "漢": 1760,
      "漫": 1761,
      "澄": 1762,
      "澳": 1763,
      "火": 1764,
      "灯": 1765,
      "炒": 1766,
      "点": 1767,
      "為": 1768,
      "烤": 1769,
      "烧": 1770,
      "無": 1771,
      "然": 1772,
      "焼": 1773,
      "煌": 1774,
      "煎": 1775,
      "照": 1776,
      "爆": 1777,
      "爬": 1778,
      "爱": 1779,
      "爸": 1780,
      "爾": 1781,
      "版": 1782,
      "牌": 1783,
      "牛": 1784,
      "物": 1785,
      "特": 1786,
      "状": 1787,
      "独": 1788,
      "猫": 1789,
      "獄": 1790,
      "玉": 1791,
      "王": 1792,
      "玛": 1793,
      "玩": 1794,
      "球": 1795,
      "理": 1796,
      "甘": 1797,
      "生": 1798,
      "産": 1799,
      "用": 1800,
      "田": 1801,
      "由": 1802,
      "甲": 1803,
      "申": 1804,
      "男": 1805,
      "甸": 1806,
      "画": 1807,
      "界": 1808,
      "留": 1809,
      "番": 1810,
      "畫": 1811,
      "當": 1812,
      "疎": 1813,
      "疯": 1814,
      "疲": 1815,
      "病": 1816,
      "発": 1817,
      "登": 1818,
      "發": 1819,
      "白": 1820,
      "百": 1821,
      "的": 1822,
      "皅": 1823,
      "皆": 1824,
      "皇": 1825,
      "皿": 1826,
      "益": 1827,
      "盗": 1828,
      "盛": 1829,
      "目": 1830,
      "直": 1831,
      "相": 1832,
      "盾": 1833,
      "省": 1834,
      "県": 1835,
      "真": 1836,
      "眠": 1837,
      "眼": 1838,
      "眾": 1839,
      "知": 1840,
      "石": 1841,
      "研": 1842,
      "碦": 1843,
      "確": 1844,
      "示": 1845,
      "礼": 1846,
      "社": 1847,
      "祖": 1848,
      "祝": 1849,
      "神": 1850,
      "福": 1851,
      "私": 1852,
      "科": 1853,
      "积": 1854,
      "称": 1855,
      "移": 1856,
      "程": 1857,
      "稚": 1858,
      "種": 1859,
      "稱": 1860,
      "稿": 1861,
      "穢": 1862,
      "穴": 1863,
      "究": 1864,
      "空": 1865,
      "立": 1866,
      "站": 1867,
      "竟": 1868,
      "端": 1869,
      "笑": 1870,
      "符": 1871,
      "笨": 1872,
      "第": 1873,
      "等": 1874,
      "答": 1875,
      "简": 1876,
      "簿": 1877,
      "米": 1878,
      "粉": 1879,
      "粒": 1880,
      "精": 1881,
      "系": 1882,
      "紀": 1883,
      "約": 1884,
      "納": 1885,
      "紙": 1886,
      "索": 1887,
      "累": 1888,
      "紳": 1889,
      "終": 1890,
      "結": 1891,
      "継": 1892,
      "続": 1893,
      "維": 1894,
      "網": 1895,
      "緒": 1896,
      "練": 1897,
      "繁": 1898,
      "练": 1899,
      "羅": 1900,
      "美": 1901,
      "義": 1902,
      "習": 1903,
      "翻": 1904,
      "老": 1905,
      "考": 1906,
      "者": 1907,
      "聊": 1908,
      "聞": 1909,
      "職": 1910,
      "聽": 1911,
      "肌": 1912,
      "肛": 1913,
      "肢": 1914,
      "肪": 1915,
      "育": 1916,
      "胡": 1917,
      "能": 1918,
      "脂": 1919,
      "脑": 1920,
      "腦": 1921,
      "腹": 1922,
      "膨": 1923,
      "臓": 1924,
      "自": 1925,
      "臭": 1926,
      "至": 1927,
      "般": 1928,
      "良": 1929,
      "色": 1930,
      "花": 1931,
      "芳": 1932,
      "苛": 1933,
      "苦": 1934,
      "英": 1935,
      "茨": 1936,
      "茶": 1937,
      "莊": 1938,
      "萌": 1939,
      "落": 1940,
      "葉": 1941,
      "著": 1942,
      "蔑": 1943,
      "薄": 1944,
      "虎": 1945,
      "號": 1946,
      "蛋": 1947,
      "蠢": 1948,
      "血": 1949,
      "行": 1950,
      "術": 1951,
      "表": 1952,
      "袋": 1953,
      "被": 1954,
      "裂": 1955,
      "装": 1956,
      "裹": 1957,
      "複": 1958,
      "西": 1959,
      "要": 1960,
      "見": 1961,
      "規": 1962,
      "視": 1963,
      "観": 1964,
      "覺": 1965,
      "觀": 1966,
      "见": 1967,
      "观": 1968,
      "觉": 1969,
      "解": 1970,
      "言": 1971,
      "計": 1972,
      "訓": 1973,
      "記": 1974,
      "訳": 1975,
      "訴": 1976,
      "詞": 1977,
      "試": 1978,
      "話": 1979,
      "認": 1980,
      "誘": 1981,
      "語": 1982,
      "説": 1983,
      "読": 1984,
      "調": 1985,
      "談": 1986,
      "論": 1987,
      "謎": 1988,
      "證": 1989,
      "識": 1990,
      "警": 1991,
      "議": 1992,
      "護": 1993,
      "譽": 1994,
      "讀": 1995,
      "讃": 1996,
      "讨": 1997,
      "议": 1998,
      "讲": 1999,
      "论": 2000,
      "证": 2001,
      "识": 2002,
      "词": 2003,
      "话": 2004,
      "该": 2005,
      "语": 2006,
      "说": 2007,
      "请": 2008,
      "读": 2009,
      "谁": 2010,
      "谅": 2011,
      "谈": 2012,
      "谐": 2013,
      "谓": 2014,
      "谢": 2015,
      "負": 2016,
      "貰": 2017,
      "貼": 2018,
      "資": 2019,
      "賈": 2020,
      "質": 2021,
      "購": 2022,
      "賽": 2023,
      "货": 2024,
      "质": 2025,
      "贴": 2026,
      "赌": 2027,
      "赛": 2028,
      "赤": 2029,
      "赵": 2030,
      "起": 2031,
      "超": 2032,
      "足": 2033,
      "跟": 2034,
      "路": 2035,
      "踊": 2036,
      "蹂": 2037,
      "躏": 2038,
      "身": 2039,
      "車": 2040,
      "載": 2041,
      "輝": 2042,
      "輩": 2043,
      "輯": 2044,
      "车": 2045,
      "轻": 2046,
      "较": 2047,
      "辅": 2048,
      "辜": 2049,
      "辰": 2050,
      "辺": 2051,
      "込": 2052,
      "迎": 2053,
      "运": 2054,
      "近": 2055,
      "还": 2056,
      "这": 2057,
      "迷": 2058,
      "追": 2059,
      "送": 2060,
      "逆": 2061,
      "這": 2062,
      "通": 2063,
      "造": 2064,
      "連": 2065,
      "逼": 2066,
      "遊": 2067,
      "運": 2068,
      "過": 2069,
      "遑": 2070,
      "道": 2071,
      "達": 2072,
      "違": 2073,
      "適": 2074,
      "選": 2075,
      "邀": 2076,
      "還": 2077,
      "邏": 2078,
      "那": 2079,
      "部": 2080,
      "都": 2081,
      "酔": 2082,
      "里": 2083,
      "重": 2084,
      "野": 2085,
      "金": 2086,
      "銀": 2087,
      "錯": 2088,
      "鍠": 2089,
      "鏡": 2090,
      "钓": 2091,
      "钱": 2092,
      "長": 2093,
      "长": 2094,
      "門": 2095,
      "開": 2096,
      "間": 2097,
      "関": 2098,
      "闇": 2099,
      "门": 2100,
      "问": 2101,
      "间": 2102,
      "防": 2103,
      "降": 2104,
      "限": 2105,
      "除": 2106,
      "陰": 2107,
      "陽": 2108,
      "隆": 2109,
      "隊": 2110,
      "隍": 2111,
      "際": 2112,
      "雅": 2113,
      "集": 2114,
      "難": 2115,
      "雨": 2116,
      "雫": 2117,
      "零": 2118,
      "雷": 2119,
      "需": 2120,
      "露": 2121,
      "青": 2122,
      "非": 2123,
      "面": 2124,
      "革": 2125,
      "韓": 2126,
      "音": 2127,
      "韹": 2128,
      "預": 2129,
      "頑": 2130,
      "頭": 2131,
      "顆": 2132,
      "題": 2133,
      "願": 2134,
      "風": 2135,
      "风": 2136,
      "飛": 2137,
      "食": 2138,
      "飯": 2139,
      "饼": 2140,
      "首": 2141,
      "駆": 2142,
      "駐": 2143,
      "騜": 2144,
      "马": 2145,
      "骨": 2146,
      "體": 2147,
      "高": 2148,
      "髪": 2149,
      "鬼": 2150,
      "魂": 2151,
      "鰉": 2152,
      "鱼": 2153,
      "鸡": 2154,
      "鸭": 2155,
      "鹰": 2156,
      "麼": 2157,
      "黄": 2158,
      "黑": 2159,
      "龙": 2160,
      "龴": 2161,
      "꒪": 2162,
      "가": 2163,
      "각": 2164,
      "강": 2165,
      "개": 2166,
      "거": 2167,
      "걱": 2168,
      "건": 2169,
      "걸": 2170,
      "것": 2171,
      "게": 2172,
      "경": 2173,
      "고": 2174,
      "곰": 2175,
      "공": 2176,
      "과": 2177,
      "관": 2178,
      "광": 2179,
      "교": 2180,
      "구": 2181,
      "국": 2182,
      "귀": 2183,
      "규": 2184,
      "그": 2185,
      "글": 2186,
      "금": 2187,
      "기": 2188,
      "김": 2189,
      "까": 2190,
      "꼭": 2191,
      "나": 2192,
      "냥": 2193,
      "너": 2194,
      "네": 2195,
      "년": 2196,
      "늄": 2197,
      "는": 2198,
      "능": 2199,
      "니": 2200,
      "님": 2201,
      "다": 2202,
      "닫": 2203,
      "달": 2204,
      "닭": 2205,
      "답": 2206,
      "당": 2207,
      "대": 2208,
      "댓": 2209,
      "더": 2210,
      "데": 2211,
      "도": 2212,
      "되": 2213,
      "됨": 2214,
      "됩": 2215,
      "두": 2216,
      "둠": 2217,
      "드": 2218,
      "들": 2219,
      "등": 2220,
      "떤": 2221,
      "뜨": 2222,
      "뜻": 2223,
      "라": 2224,
      "람": 2225,
      "랑": 2226,
      "래": 2227,
      "레": 2228,
      "력": 2229,
      "련": 2230,
      "령": 2231,
      "로": 2232,
      "록": 2233,
      "르": 2234,
      "를": 2235,
      "름": 2236,
      "리": 2237,
      "마": 2238,
      "막": 2239,
      "만": 2240,
      "많": 2241,
      "말": 2242,
      "맘": 2243,
      "맞": 2244,
      "머": 2245,
      "먹": 2246,
      "면": 2247,
      "멸": 2248,
      "명": 2249,
      "모": 2250,
      "못": 2251,
      "몽": 2252,
      "무": 2253,
      "문": 2254,
      "미": 2255,
      "바": 2256,
      "반": 2257,
      "밥": 2258,
      "방": 2259,
      "배": 2260,
      "백": 2261,
      "버": 2262,
      "번": 2263,
      "법": 2264,
      "베": 2265,
      "병": 2266,
      "보": 2267,
      "볶": 2268,
      "부": 2269,
      "불": 2270,
      "비": 2271,
      "빈": 2272,
      "빛": 2273,
      "빠": 2274,
      "빴": 2275,
      "쁜": 2276,
      "사": 2277,
      "살": 2278,
      "상": 2279,
      "생": 2280,
      "서": 2281,
      "석": 2282,
      "선": 2283,
      "성": 2284,
      "세": 2285,
      "셈": 2286,
      "셧": 2287,
      "셨": 2288,
      "소": 2289,
      "속": 2290,
      "손": 2291,
      "숀": 2292,
      "수": 2293,
      "숙": 2294,
      "순": 2295,
      "스": 2296,
      "시": 2297,
      "신": 2298,
      "실": 2299,
      "심": 2300,
      "십": 2301,
      "아": 2302,
      "악": 2303,
      "안": 2304,
      "알": 2305,
      "앞": 2306,
      "애": 2307,
      "앤": 2308,
      "야": 2309,
      "양": 2310,
      "어": 2311,
      "억": 2312,
      "언": 2313,
      "얼": 2314,
      "에": 2315,
      "여": 2316,
      "역": 2317,
      "연": 2318,
      "예": 2319,
      "오": 2320,
      "외": 2321,
      "요": 2322,
      "우": 2323,
      "운": 2324,
      "웃": 2325,
      "월": 2326,
      "육": 2327,
      "으": 2328,
      "은": 2329,
      "을": 2330,
      "음": 2331,
      "의": 2332,
      "이": 2333,
      "인": 2334,
      "일": 2335,
      "임": 2336,
      "입": 2337,
      "있": 2338,
      "자": 2339,
      "작": 2340,
      "잘": 2341,
      "잠": 2342,
      "재": 2343,
      "저": 2344,
      "절": 2345,
      "점": 2346,
      "정": 2347,
      "제": 2348,
      "존": 2349,
      "좋": 2350,
      "주": 2351,
      "줄": 2352,
      "즘": 2353,
      "증": 2354,
      "지": 2355,
      "직": 2356,
      "진": 2357,
      "찍": 2358,
      "천": 2359,
      "체": 2360,
      "춤": 2361,
      "치": 2362,
      "칫": 2363,
      "커": 2364,
      "켓": 2365,
      "크": 2366,
      "타": 2367,
      "테": 2368,
      "텐": 2369,
      "트": 2370,
      "티": 2371,
      "팅": 2372,
      "파": 2373,
      "편": 2374,
      "포": 2375,
      "품": 2376,
      "프": 2377,
      "플": 2378,
      "피": 2379,
      "하": 2380,
      "학": 2381,
      "한": 2382,
      "할": 2383,
      "합": 2384,
      "해": 2385,
      "핸": 2386,
      "험": 2387,
      "활": 2388,
      "훼": 2389,
      "희": 2390,
      "히": 2391,
      "힌": 2392,
      "": 2393,
      "": 2394,
      "": 2395,
      "": 2396,
      "": 2397,
      "": 2398,
      "": 2399,
      "﴾": 2400,
      "︎": 2401,
      "️": 2402,
      "﻿": 2403,
      "￼": 2404,
      "�": 2405,
      "𐎠": 2406,
      "𐎧": 2407,
      "𐎹": 2408,
      "𐎼": 2409,
      "𐏁": 2410,
      "🇦": 2411,
      "🇧": 2412,
      "🇷": 2413,
      "🇸": 2414,
      "🇺": 2415,
      "🌀": 2416,
      "🌊": 2417,
      "🌎": 2418,
      "🌛": 2419,
      "🌜": 2420,
      "🌝": 2421,
      "🌞": 2422,
      "🌟": 2423,
      "🌭": 2424,
      "🌰": 2425,
      "🌳": 2426,
      "🌽": 2427,
      "🍁": 2428,
      "🍌": 2429,
      "🍍": 2430,
      "🍔": 2431,
      "🍕": 2432,
      "🍟": 2433,
      "🍪": 2434,
      "🍫": 2435,
      "🍰": 2436,
      "🍳": 2437,
      "🍴": 2438,
      "🍺": 2439,
      "🍻": 2440,
      "🎁": 2441,
      "🎂": 2442,
      "🎃": 2443,
      "🎄": 2444,
      "🎅": 2445,
      "🎈": 2446,
      "🎉": 2447,
      "🎊": 2448,
      "🎓": 2449,
      "🎮": 2450,
      "🎶": 2451,
      "🎸": 2452,
      "🎺": 2453,
      "🏻": 2454,
      "🏼": 2455,
      "🏽": 2456,
      "🏾": 2457,
      "🏿": 2458,
      "🐋": 2459,
      "🐌": 2460,
      "🐍": 2461,
      "🐕": 2462,
      "🐙": 2463,
      "🐛": 2464,
      "🐜": 2465,
      "🐝": 2466,
      "🐞": 2467,
      "🐟": 2468,
      "🐬": 2469,
      "🐲": 2470,
      "🐸": 2471,
      "🐼": 2472,
      "👀": 2473,
      "👊": 2474,
      "👌": 2475,
      "👍": 2476,
      "👎": 2477,
      "👏": 2478,
      "👨": 2479,
      "👩": 2480,
      "👰": 2481,
      "👱": 2482,
      "👴": 2483,
      "👹": 2484,
      "👺": 2485,
      "👻": 2486,
      "👼": 2487,
      "💀": 2488,
      "💁": 2489,
      "💃": 2490,
      "💄": 2491,
      "💉": 2492,
      "💋": 2493,
      "💑": 2494,
      "💔": 2495,
      "💕": 2496,
      "💖": 2497,
      "💗": 2498,
      "💙": 2499,
      "💚": 2500,
      "💛": 2501,
      "💜": 2502,
      "💝": 2503,
      "💞": 2504,
      "💟": 2505,
      "💤": 2506,
      "💨": 2507,
      "💩": 2508,
      "💯": 2509,
      "💰": 2510,
      "💵": 2511,
      "💻": 2512,
      "💾": 2513,
      "📡": 2514,
      "📱": 2515,
      "🔗": 2516,
      "🔢": 2517,
      "🔥": 2518,
      "🔪": 2519,
      "🔮": 2520,
      "🕔": 2521,
      "🕕": 2522,
      "🖕": 2523,
      "😀": 2524,
      "😁": 2525,
      "😂": 2526,
      "😃": 2527,
      "😄": 2528,
      "😅": 2529,
      "😆": 2530,
      "😇": 2531,
      "😈": 2532,
      "😉": 2533,
      "😊": 2534,
      "😋": 2535,
      "😌": 2536,
      "😍": 2537,
      "😎": 2538,
      "😏": 2539,
      "😐": 2540,
      "😑": 2541,
      "😒": 2542,
      "😓": 2543,
      "😔": 2544,
      "😕": 2545,
      "😖": 2546,
      "😘": 2547,
      "😙": 2548,
      "😚": 2549,
      "😛": 2550,
      "😜": 2551,
      "😝": 2552,
      "😞": 2553,
      "😟": 2554,
      "😠": 2555,
      "😡": 2556,
      "😢": 2557,
      "😣": 2558,
      "😤": 2559,
      "😦": 2560,
      "😧": 2561,
      "😩": 2562,
      "😫": 2563,
      "😬": 2564,
      "😭": 2565,
      "😯": 2566,
      "😱": 2567,
      "😳": 2568,
      "😴": 2569,
      "😵": 2570,
      "😶": 2571,
      "😾": 2572,
      "😿": 2573,
      "🙁": 2574,
      "🙂": 2575,
      "🙃": 2576,
      "🙄": 2577,
      "🙇": 2578,
      "🙈": 2579,
      "🙌": 2580,
      "🙏": 2581,
      "🚩": 2582,
      "🚫": 2583,
      "🚶": 2584,
      "🤔": 2585,
      "🤕": 2586,
      "🤗": 2587,
      "🤘": 2588,
      "e ": 2589,
      "t ": 2590,
      "s ": 2591,
      "th": 2592,
      "in": 2593,
      "d ": 2594,
      "an": 2595,
      "er": 2596,
      "y ": 2597,
      "on": 2598,
      "o ": 2599,
      "ou": 2600,
      "or": 2601,
      "ing": 2602,
      ", ": 2603,
      "en": 2604,
      "to ": 2605,
      "ing ": 2606,
      ". ": 2607,
      "ar": 2608,
      "al": 2609,
      "re": 2610,
      "a ": 2611,
      "the ": 2612,
      "and ": 2613,
      "f ": 2614,
      "ti": 2615,
      "I ": 2616,
      "ed ": 2617,
      "er ": 2618,
      "\"\n": 2619,
      "ha": 2620,
      "is ": 2621,
      "st": 2622,
      "om": 2623,
      "l ": 2624,
      "it": 2625,
      "or ": 2626,
      "you": 2627,
      "es": 2628,
      "of ": 2629,
      "ow": 2630,
      "el": 2631,
      "at": 2632,
      "in ": 2633,
      "on ": 2634,
      "ve ": 2635,
      "at ": 2636,
      "ch": 2637,
      "wi": 2638,
      ".\"\n": 2639,
      "us": 2640,
      "sh": 2641,
      "ly ": 2642,
      "ri": 2643,
      "m ": 2644,
      "k ": 2645,
      "es ": 2646,
      "li": 2647,
      "it ": 2648,
      "le": 2649,
      "ac": 2650,
      "an ": 2651,
      "for ": 2652,
      ".\n": 2653,
      "th ": 2654,
      "be": 2655,
      "as": 2656,
      "'t ": 2657,
      "ot ": 2658,
      "me ": 2659,
      "en ": 2660,
      "you ": 2661,
      "le ": 2662,
      "my ": 2663,
      "ro": 2664,
      "ic": 2665,
      "p ": 2666,
      "as ": 2667,
      "wh": 2668,
      "bu": 2669,
      "gh": 2670,
      "ab": 2671,
      "with ": 2672,
      "that ": 2673,
      "ow ": 2674,
      "oo": 2675,
      "ma": 2676,
      "r ": 2677,
      "is": 2678,
      "out ": 2679,
      "ld ": 2680,
      "ke ": 2681,
      "un": 2682,
      "se": 2683,
      "the": 2684,
      "'s ": 2685,
      "ge": 2686,
      "de": 2687,
      "su": 2688,
      "la": 2689,
      "ne": 2690,
      "be ": 2691,
      "me": 2692,
      "op": 2693,
      "si": 2694,
      "ver": 2695,
      "ll ": 2696,
      "al ": 2697,
      "di": 2698,
      "are ": 2699,
      "ra": 2700,
      "os": 2701,
      "not ": 2702,
      "tion": 2703,
      "but ": 2704,
      "pe": 2705,
      "have ": 2706,
      "com": 2707,
      "ir": 2708,
      "ould ": 2709,
      "ad": 2710,
      ". \n": 2711,
      "fe": 2712,
      "Th": 2713,
      "ed": 2714,
      "I'": 2715,
      "\"\"": 2716,
      "ent": 2717,
      "ex": 2718,
      "con": 2719,
      "ch ": 2720,
      "ur": 2721,
      "ca": 2722,
      "ally ": 2723,
      "on't ": 2724,
      "one ": 2725,
      "do": 2726,
      "som": 2727,
      "pro": 2728,
      ", and ": 2729,
      "il": 2730,
      " \n": 2731,
      "ent ": 2732,
      "sa": 2733,
      "wor": 2734,
      "ga": 2735,
      "hat ": 2736,
      "rien": 2737,
      "lo": 2738,
      "this ": 2739,
      "ust ": 2740,
      "king ": 2741,
      "frien": 2742,
      "your ": 2743,
      "ore ": 2744,
      "wa": 2745,
      "was ": 2746,
      "if ": 2747,
      "tt": 2748,
      "om ": 2749,
      "wan": 2750,
      "ere ": 2751,
      "ther ": 2752,
      "hi": 2753,
      ": ": 2754,
      "ce ": 2755,
      "do ": 2756,
      "ts ": 2757,
      "use ": 2758,
      "to": 2759,
      "all ": 2760,
      "pp": 2761,
      "n't ": 2762,
      "tr": 2763,
      "s, ": 2764,
      "n ": 2765,
      "so ": 2766,
      "tion ": 2767,
      "about ": 2768,
      "I'm ": 2769,
      "get ": 2770,
      "fr": 2771,
      "mo": 2772,
      "don't ": 2773,
      "like ": 2774,
      "po": 2775,
      "just ": 2776,
      ".  ": 2777,
      "ea": 2778,
      "ta": 2779,
      "ter": 2780,
      "can ": 2781,
      "fu": 2782,
      "ght ": 2783,
      "ver ": 2784,
      "now ": 2785,
      "per": 2786,
      "oun": 2787,
      "re ": 2788,
      "gu": 2789,
      "g ": 2790,
      "ol": 2791,
      "up ": 2792,
      "ed to ": 2793,
      "id": 2794,
      ", but ": 2795,
      "ear": 2796,
      "what ": 2797,
      "her ": 2798,
      "bo": 2799,
      "from ": 2800,
      "for": 2801,
      "ge ": 2802,
      "qu": 2803,
      "da": 2804,
      "he ": 2805,
      "thing ": 2806,
      "res": 2807,
      "cause ": 2808,
      "more ": 2809,
      "go": 2810,
      "w ": 2811,
      "mp": 2812,
      "pla": 2813,
      "ff": 2814,
      "they ": 2815,
      "t to ": 2816,
      "we": 2817,
      "e, ": 2818,
      "par": 2819,
      "ci": 2820,
      "ate ": 2821,
      "ks ": 2822,
      ". I ": 2823,
      "will ": 2824,
      "in the ": 2825,
      "peop": 2826,
      "because ": 2827,
      "ds ": 2828,
      "all": 2829,
      "ing to ": 2830,
      "how ": 2831,
      "some": 2832,
      "ough": 2833,
      "rea": 2834,
      "gi": 2835,
      " E": 2836,
      "ev": 2837,
      "thin": 2838,
      "ke": 2839,
      "y, ": 2840,
      "sel": 2841,
      "ter ": 2842,
      "any ": 2843,
      "we ": 2844,
      "ost ": 2845,
      "ever": 2846,
      "fi": 2847,
      "?\"\n": 2848,
      "ther": 2849,
      "she ": 2850,
      "ce": 2851,
      "hel": 2852,
      "by ": 2853,
      "of the ": 2854,
      "friend ": 2855,
      "mu": 2856,
      "has ": 2857,
      "de ": 2858,
      "up": 2859,
      "know ": 2860,
      "? ": 2861,
      "ood ": 2862,
      "vi": 2863,
      "some ": 2864,
      "when ": 2865,
      "tic": 2866,
      "fin": 2867,
      "ar ": 2868,
      "s. ": 2869,
      "would ": 2870,
      "mon": 2871,
      "people ": 2872,
      "other ": 2873,
      "el ": 2874,
      "fa": 2875,
      "whi": 2876,
      "pl": 2877,
      "se ": 2878,
      "?\n": 2879,
      "\"I ": 2880,
      "ess ": 2881,
      "any": 2882,
      "mi": 2883,
      "and": 2884,
      "ys ": 2885,
      "thing": 2886,
      "no": 2887,
      "no ": 2888,
      "pa": 2889,
      "der": 2890,
      "should ": 2891,
      ") ": 2892,
      "est ": 2893,
      "..": 2894,
      "gir": 2895,
      "who ": 2896,
      "it's ": 2897,
      "make ": 2898,
      "ir ": 2899,
      "ck ": 2900,
      "tu": 2901,
      "'re ": 2902,
      "ul": 2903,
      "The ": 2904,
      "te": 2905,
      "shi": 2906,
      "id ": 2907,
      "\"\" ": 2908,
      "af": 2909,
      "so": 2910,
      "ack ": 2911,
      "s and ": 2912,
      "ely ": 2913,
      "ck": 2914,
      "than ": 2915,
      "his ": 2916,
      "can": 2917,
      "cl": 2918,
      "year": 2919,
      "want to ": 2920,
      "ct": 2921,
      "st ": 2922,
      ". I": 2923,
      "ity ": 2924,
      "sp": 2925,
      "sti": 2926,
      "he": 2927,
      "think ": 2928,
      "ving ": 2929,
      "way ": 2930,
      "ough ": 2931,
      "ment": 2932,
      "i ": 2933,
      "got ": 2934,
      "du": 2935,
      "being ": 2936,
      "really ": 2937,
      "ers ": 2938,
      "pre": 2939,
      "min": 2940,
      "gre": 2941,
      "a l": 2942,
      "time ": 2943,
      "pu": 2944,
      "good ": 2945,
      "am ": 2946,
      "had ": 2947,
      "co": 2948,
      "own ": 2949,
      "our ": 2950,
      "ad ": 2951,
      "go ": 2952,
      "her": 2953,
      "a b": 2954,
      "him ": 2955,
      "0 ": 2956,
      "car": 2957,
      "dit": 2958,
      "ying ": 2959,
      "x ": 2960,
      "able ": 2961,
      "ong ": 2962,
      "their ": 2963,
      "t, ": 2964,
      "loo": 2965,
      "ve": 2966,
      ". W": 2967,
      "chan": 2968,
      "ell ": 2969,
      "My ": 2970,
      "ting ": 2971,
      "dn't ": 2972,
      ". A": 2973,
      "jo": 2974,
      "into ": 2975,
      ". S": 2976,
      "them ": 2977,
      "feel ": 2978,
      "cre": 2979,
      "end": 2980,
      "prob": 2981,
      " and ": 2982,
      "ound ": 2983,
      "ru": 2984,
      "mb": 2985,
      "ast ": 2986,
      "of": 2987,
      "s.\"\n": 2988,
      "s to ": 2989,
      "rela": 2990,
      "  ": 2991,
      "every": 2992,
      "only ": 2993,
      "cu": 2994,
      "ell": 2995,
      "ted ": 2996,
      "gr": 2997,
      "does": 2998,
      "much ": 2999,
      "ked ": 3000,
      "now": 3001,
      "there ": 3002,
      "still ": 3003,
      "even ": 3004,
      "dis": 3005,
      ". H": 3006,
      "been ": 3007,
      "ph": 3008,
      "e to ": 3009,
      "bett": 3010,
      "friend": 3011,
      "t's ": 3012,
      "mat": 3013,
      "ment ": 3014,
      "our": 3015,
      "for the ": 3016,
      "IT": 3017,
      "star": 3018,
      "inter": 3019,
      "cont": 3020,
      "tur": 3021,
      "vic": 3022,
      "es, ": 3023,
      "out": 3024,
      "with": 3025,
      " A": 3026,
      "You": 3027,
      "comp": 3028,
      "in a ": 3029,
      "tal": 3030,
      "happ": 3031,
      "s.\n": 3032,
      "most ": 3033,
      "tionshi": 3034,
      "over ": 3035,
      "very ": 3036,
      "fir": 3037,
      "end ": 3038,
      "on the ": 3039,
      "after ": 3040,
      "relationshi": 3041,
      "\"I": 3042,
      "ct ": 3043,
      "doesn't ": 3044,
      "tting ": 3045,
      "new ": 3046,
      "girl": 3047,
      "et": 3048,
      "man": 3049,
      "ni": 3050,
      "and I ": 3051,
      "ose ": 3052,
      "mar": 3053,
      ", I ": 3054,
      "back ": 3055,
      "ess": 3056,
      "then ": 3057,
      "- ": 3058,
      "ic ": 3059,
      "one": 3060,
      "ard ": 3061,
      "em": 3062,
      "ep ": 3063,
      "play": 3064,
      "is a ": 3065,
      "gra": 3066,
      "if you ": 3067,
      "ase ": 3068,
      ". Th": 3069,
      "ig": 3070,
      "te ": 3071,
      "kes ": 3072,
      "too ": 3073,
      "fe ": 3074,
      "stu": 3075,
      "tive ": 3076,
      "read": 3077,
      "help ": 3078,
      "na": 3079,
      "aga": 3080,
      "self ": 3081,
      "ser": 3082,
      "sta": 3083,
      "pers": 3084,
      "ated ": 3085,
      "can't ": 3086,
      "ffer": 3087,
      "!\"\n": 3088,
      "der ": 3089,
      "tri": 3090,
      "ence ": 3091,
      "tions ": 3092,
      "wr": 3093,
      "itt": 3094,
      "ll": 3095,
      "? \n": 3096,
      "see ": 3097,
      "et ": 3098,
      "ap": 3099,
      "ry ": 3100,
      "ite ": 3101,
      " S": 3102,
      "ack": 3103,
      "for a ": 3104,
      "DIT": 3105,
      "work ": 3106,
      "game ": 3107,
      "comm": 3108,
      "to be ": 3109,
      "ong": 3110,
      "which ": 3111,
      "sure ": 3112,
      "2 ": 3113,
      "im": 3114,
      "ble ": 3115,
      "you're ": 3116,
      "thr": 3117,
      "better ": 3118,
      " Edit": 3119,
      "\"S": 3120,
      "ght": 3121,
      "ill": 3122,
      "could ": 3123,
      "its ": 3124,
      "e's ": 3125,
      "mes ": 3126,
      "ous ": 3127,
      "ard": 3128,
      "est": 3129,
      "less ": 3130,
      "off ": 3131,
      "fac": 3132,
      "ran": 3133,
      "that": 3134,
      "ation ": 3135,
      "spe": 3136,
      "tea": 3137,
      "the b": 3138,
      " EDIT": 3139,
      "stor": 3140,
      "us ": 3141,
      "take ": 3142,
      "ep": 3143,
      "lin": 3144,
      "ey ": 3145,
      "ef": 3146,
      "while ": 3147,
      "sh ": 3148,
      "pri": 3149,
      "ating ": 3150,
      "need ": 3151,
      "mor": 3152,
      "peri": 3153,
      "gg": 3154,
      "something ": 3155,
      "tw": 3156,
      "fun": 3157,
      "\"W": 3158,
      "love ": 3159,
      "pos": 3160,
      "app": 3161,
      "where ": 3162,
      "own": 3163,
      "S ": 3164,
      "You ": 3165,
      "tra": 3166,
      "iz": 3167,
      "run": 3168,
      "enti": 3169,
      "enc": 3170,
      "che": 3171,
      "](": 3172,
      "want ": 3173,
      "dic": 3174,
      "ves ": 3175,
      "oul": 3176,
      "feel": 3177,
      "des": 3178,
      "choo": 3179,
      "things ": 3180,
      "ide": 3181,
      "were ": 3182,
      "with a ": 3183,
      "bro": 3184,
      "bi": 3185,
      "y.\"\n": 3186,
      "vo": 3187,
      "t of ": 3188,
      "didn't ": 3189,
      " Edit: ": 3190,
      "\"G": 3191,
      "y to ": 3192,
      "high": 3193,
      "d, ": 3194,
      "them": 3195,
      "pres": 3196,
      "int": 3197,
      "differ": 3198,
      "help": 3199,
      "acc": 3200,
      "first ": 3201,
      "never ": 3202,
      "Than": 3203,
      "ing, ": 3204,
      "y and ": 3205,
      "ant ": 3206,
      "without ": 3207,
      "s are ": 3208,
      "made ": 3209,
      "to the ": 3210,
      "sy": 3211,
      "ing the ": 3212,
      "time": 3213,
      "ably ": 3214,
      "getting ": 3215,
      "I've ": 3216,
      "fore ": 3217,
      "A ": 3218,
      "someone ": 3219,
      "before ": 3220,
      "00": 3221,
      "again": 3222,
      "also ": 3223,
      "ort": 3224,
      "girl ": 3225,
      "give ": 3226,
      "d of ": 3227,
      " I ": 3228,
      "cra": 3229,
      "actu": 3230,
      "how to ": 3231,
      "wee": 3232,
      "old ": 3233,
      "e.\"\n": 3234,
      "E ": 3235,
      "off": 3236,
      "have a ": 3237,
      "right ": 3238,
      "this": 3239,
      "aw": 3240,
      "b ": 3241,
      "find ": 3242,
      "imp": 3243,
      "supp": 3244,
      "come ": 3245,
      "eli": 3246,
      "ever ": 3247,
      "advic": 3248,
      "fre": 3249,
      "plac": 3250,
      "him": 3251,
      "going to ": 3252,
      "pic": 3253,
      "str": 3254,
      "work": 3255,
      "lea": 3256,
      "over": 3257,
      "ation": 3258,
      "ought ": 3259,
      "Don't ": 3260,
      "ved ": 3261,
      "mis": 3262,
      "boy": 3263,
      "s of ": 3264,
      "reas": 3265,
      "play ": 3266,
      "I don't ": 3267,
      "3 ": 3268,
      "ass": 3269,
      "read ": 3270,
      "\"B": 3271,
      "same ": 3272,
      "ding ": 3273,
      "ome ": 3274,
      "ag": 3275,
      "experi": 3276,
      "lu": 3277,
      "ous": 3278,
      "I was ": 3279,
      "5 ": 3280,
      "my": 3281,
      ". B": 3282,
      "cur": 3283,
      "dec": 3284,
      "do I ": 3285,
      "am": 3286,
      "br": 3287,
      "too": 3288,
      "a lot ": 3289,
      "cor": 3290,
      ". N": 3291,
      "proble": 3292,
      "ly": 3293,
      "ways ": 3294,
      "op ": 3295,
      "brea": 3296,
      "f you ": 3297,
      "friends ": 3298,
      "out of ": 3299,
      "try": 3300,
      "em ": 3301,
      "with the ": 3302,
      "pon": 3303,
      "gen": 3304,
      "sk": 3305,
      "under": 3306,
      "lear": 3307,
      "pr": 3308,
      "ese ": 3309,
      "ful ": 3310,
      " EDIT: ": 3311,
      "sit": 3312,
      "inst": 3313,
      "need to ": 3314,
      "isn't ": 3315,
      "ion": 3316,
      "schoo": 3317,
      "let ": 3318,
      "lat": 3319,
      "dy ": 3320,
      "life ": 3321,
      "hu": 3322,
      "ant": 3323,
      "I am ": 3324,
      "; ": 3325,
      "day ": 3326,
      "D ": 3327,
      "as a ": 3328,
      "bas": 3329,
      "other": 3330,
      "does ": 3331,
      "guy ": 3332,
      "col": 3333,
      "sion": 3334,
      "ob": 3335,
      "keep ": 3336,
      "did ": 3337,
      "through ": 3338,
      "ist": 3339,
      "dit ": 3340,
      "self": 3341,
      "relationship ": 3342,
      "need": 3343,
      "shit ": 3344,
      "part": 3345,
      "tre": 3346,
      "T ": 3347,
      "mil": 3348,
      "probably ": 3349,
      "ort ": 3350,
      "down ": 3351,
      "two ": 3352,
      "lease ": 3353,
      "month": 3354,
      "issu": 3355,
      "ance ": 3356,
      "know": 3357,
      "may ": 3358,
      "wat": 3359,
      "ari": 3360,
      "might ": 3361,
      "tell ": 3362,
      "at the ": 3363,
      "it, ": 3364,
      "ning ": 3365,
      "eas": 3366,
      "sc": 3367,
      "red": 3368,
      "tiv": 3369,
      "\"My ": 3370,
      "actually ": 3371,
      "att": 3372,
      "ut ": 3373,
      "low": 3374,
      "!\n": 3375,
      "es and ": 3376,
      "I have ": 3377,
      "nd ": 3378,
      "e.\n": 3379,
      "to get ": 3380,
      "ed, ": 3381,
      "je": 3382,
      "\"A": 3383,
      "en't ": 3384,
      "a c": 3385,
      "ince ": 3386,
      "in my ": 3387,
      ")\"\n": 3388,
      " P": 3389,
      "ans": 3390,
      "poin": 3391,
      "e and ": 3392,
      "ques": 3393,
      "sub": 3394,
      "mer": 3395,
      "having ": 3396,
      "kin": 3397,
      "wants ": 3398,
      "age ": 3399,
      "why ": 3400,
      "y.\n": 3401,
      "trying to ": 3402,
      "possi": 3403,
      "used ": 3404,
      "\"H": 3405,
      "Ch": 3406,
      "makes ": 3407,
      "game": 3408,
      "ft ": 3409,
      "cking ": 3410,
      "long ": 3411,
      "ned ": 3412,
      "ouldn't ": 3413,
      "anything ": 3414,
      "life": 3415,
      "making ": 3416,
      "ittle ": 3417,
      "sion ": 3418,
      "ate": 3419,
      "many ": 3420,
      "sex": 3421,
      "post": 3422,
      "real": 3423,
      "'ll ": 3424,
      "lic": 3425,
      "\"M": 3426,
      "man ": 3427,
      "ys": 3428,
      "ill ": 3429,
      "es to ": 3430,
      "say ": 3431,
      "with my ": 3432,
      "\"F": 3433,
      "cep": 3434,
      "bad ": 3435,
      "both ": 3436,
      "er, ": 3437,
      "every ": 3438,
      "ty": 3439,
      "it.\"\n": 3440,
      "around ": 3441,
      " I": 3442,
      "sed ": 3443,
      "happen": 3444,
      "person": 3445,
      "few ": 3446,
      "tru": 3447,
      "mes": 3448,
      "4 ": 3449,
      "doing ": 3450,
      "vel": 3451,
      "nor": 3452,
      "looking ": 3453,
      "boo": 3454,
      "put ": 3455,
      "nu": 3456,
      "that I ": 3457,
      "au": 3458,
      "char": 3459,
      "cer": 3460,
      "1 ": 3461,
      "sm": 3462,
      "tty ": 3463,
      "it is ": 3464,
      "great ": 3465,
      "ful": 3466,
      "said ": 3467,
      "best ": 3468,
      ". T": 3469,
      "beli": 3470,
      "ass ": 3471,
      "on a ": 3472,
      "relationship": 3473,
      "anyone ": 3474,
      "ole ": 3475,
      "per ": 3476,
      "ush": 3477,
      "hop": 3478,
      "would be ": 3479,
      "wom": 3480,
      "P ": 3481,
      "dr": 3482,
      "red ": 3483,
      "to do ": 3484,
      "years ": 3485,
      "sol": 3486,
      "coun": 3487,
      "different ": 3488,
      "another ": 3489,
      "What ": 3490,
      "ently ": 3491,
      "ents ": 3492,
      "of a ": 3493,
      "stop ": 3494,
      "ans ": 3495,
      "! ": 3496,
      "those ": 3497,
      "\"C": 3498,
      "hear": 3499,
      "cha": 3500,
      "back": 3501,
      "boyfriend ": 3502,
      "ms ": 3503,
      "down": 3504,
      "bl": 3505,
      "your": 3506,
      "is the ": 3507,
      "always ": 3508,
      "won't ": 3509,
      "these ": 3510,
      "comple": 3511,
      "sor": 3512,
      "you can ": 3513,
      "me to ": 3514,
      "\"D": 3515,
      "of my ": 3516,
      "ure ": 3517,
      "tic ": 3518,
      "underst": 3519,
      "cri": 3520,
      ". The ": 3521,
      "fuck ": 3522,
      "using ": 3523,
      "told ": 3524,
      "year ": 3525,
      "\"P": 3526,
      "don": 3527,
      "money ": 3528,
      "nic": 3529,
      "ju": 3530,
      "anc": 3531,
      "is not ": 3532,
      "cr": 3533,
      "dri": 3534,
      "move ": 3535,
      "til ": 3536,
      "going ": 3537,
      "' ": 3538,
      "O ": 3539,
      "ot": 3540,
      "pretty ": 3541,
      "act ": 3542,
      "ed by ": 3543,
      "s. \n": 3544,
      "seem": 3545,
      "since ": 3546,
      "talk ": 3547,
      "all the ": 3548,
      "toge": 3549,
      "le, ": 3550,
      "interest": 3551,
      "look ": 3552,
      "everyone ": 3553,
      "respon": 3554,
      "it was ": 3555,
      "gin": 3556,
      "How ": 3557,
      "girlfriend ": 3558,
      "don't know ": 3559,
      ". P": 3560,
      "Re": 3561,
      "This ": 3562,
      "he's ": 3563,
      "ed and ": 3564,
      "s, and ": 3565,
      "nex": 3566,
      "soci": 3567,
      "\"T": 3568,
      "though ": 3569,
      "last ": 3570,
      "I'm not ": 3571,
      "here ": 3572,
      "well ": 3573,
      "should I ": 3574,
      "side ": 3575,
      "want": 3576,
      "hard ": 3577,
      "ings ": 3578,
      "\"N": 3579,
      "log": 3580,
      "way": 3581,
      "sist": 3582,
      " Than": 3583,
      "commun": 3584,
      "times ": 3585,
      "will be ": 3586,
      "until ": 3587,
      "\"The ": 3588,
      "inv": 3589,
      "sen": 3590,
      "sur": 3591,
      "each ": 3592,
      "ead ": 3593,
      "situ": 3594,
      "enough ": 3595,
      "went ": 3596,
      ". What ": 3597,
      "wha": 3598,
      "ang": 3599,
      "I can ": 3600,
      "Ma": 3601,
      "sex ": 3602,
      "mal": 3603,
      "fic": 3604,
      "edit": 3605,
      "day": 3606,
      "ey": 3607,
      "me, ": 3608,
      "gets ": 3609,
      "away ": 3610,
      "able to ": 3611,
      ". D": 3612,
      "fucking ": 3613,
      "on my ": 3614,
      "they": 3615,
      "il ": 3616,
      "ood": 3617,
      "have to ": 3618,
      "ny ": 3619,
      "change ": 3620,
      "kid": 3621,
      "it.\n": 3622,
      "ion ": 3623,
      "ps ": 3624,
      "win": 3625,
      "hand": 3626,
      "ome": 3627,
      "though": 3628,
      "a lot of ": 3629,
      "myself ": 3630,
      "R ": 3631,
      "call": 3632,
      "conf": 3633,
      "pow": 3634,
      "reason": 3635,
      "bet": 3636,
      "clu": 3637,
      "ity": 3638,
      "post ": 3639,
      "thought ": 3640,
      "advice ": 3641,
      "ed a ": 3642,
      "syst": 3643,
      "thre": 3644,
      "seri": 3645,
      "everything ": 3646,
      "Just ": 3647,
      "val": 3648,
      "than": 3649,
      "sive ": 3650,
      "ei": 3651,
      "found ": 3652,
      "pen": 3653,
      "F ": 3654,
      "from the ": 3655,
      "ty ": 3656,
      "gener": 3657,
      "10": 3658,
      "fuck": 3659,
      "C ": 3660,
      ". F": 3661,
      "ming ": 3662,
      "war": 3663,
      "high ": 3664,
      "curr": 3665,
      ". It ": 3666,
      ". C": 3667,
      "ed up ": 3668,
      "por": 3669,
      "vie": 3670,
      "start ": 3671,
      "hou": 3672,
      "ven ": 3673,
      "speci": 3674,
      ". G": 3675,
      "ut": 3676,
      "cle": 3677,
      "20": 3678,
      "buy ": 3679,
      "\"L": 3680,
      "pe ": 3681,
      "guys ": 3682,
      "ho": 3683,
      "ary ": 3684,
      "that's ": 3685,
      "fo": 3686,
      "and the ": 3687,
      "if I ": 3688,
      "school ": 3689,
      "es.\"\n": 3690,
      "...": 3691,
      "coo": 3692,
      "tex": 3693,
      "cess": 3694,
      "heal": 3695,
      "ction ": 3696,
      "fami": 3697,
      "ask ": 3698,
      "TH": 3699,
      "low ": 3700,
      "agre": 3701,
      "ed in ": 3702,
      "'ve ": 3703,
      "leg": 3704,
      "nothing ": 3705,
      "awes": 3706,
      "worth ": 3707,
      "try ": 3708,
      "act": 3709,
      "ence": 3710,
      "was": 3711,
      "ed the ": 3712,
      "ild ": 3713,
      "IN": 3714,
      "person ": 3715,
      "ybe ": 3716,
      "eve ": 3717,
      "almost ": 3718,
      "ual ": 3719,
      "dat": 3720,
      "ing a ": 3721,
      "ble": 3722,
      "feel like ": 3723,
      "ready ": 3724,
      "ff ": 3725,
      "set ": 3726,
      "chang": 3727,
      "long": 3728,
      "I'd ": 3729,
      "ist ": 3730,
      "tional ": 3731,
      "uni": 3732,
      "hur": 3733,
      "lan": 3734,
      "s\n": 3735,
      "contro": 3736,
      "ner": 3737,
      "dra": 3738,
      "else ": 3739,
      "adv": 3740,
      "top ": 3741,
      "ical ": 3742,
      "plan": 3743,
      "sig": 3744,
      "body ": 3745,
      "reci": 3746,
      "es.\n": 3747,
      "ple ": 3748,
      "ing.\"\n": 3749,
      "betwe": 3750,
      "es are ": 3751,
      "you are ": 3752,
      "well": 3753,
      "job": 3754,
      "me and ": 3755,
      "ight ": 3756,
      "lik": 3757,
      "ster": 3758,
      "expe": 3759,
      "colle": 3760,
      ". I'm ": 3761,
      "% ": 3762,
      " [": 3763,
      "mber ": 3764,
      "ken ": 3765,
      "\"I'm ": 3766,
      "I'll ": 3767,
      "week": 3768,
      "dro": 3769,
      "between ": 3770,
      "up with ": 3771,
      "a good ": 3772,
      "so, ": 3773,
      "idea ": 3774,
      "next ": 3775,
      "games ": 3776,
      "real ": 3777,
      ": \n": 3778,
      "about the ": 3779,
      "lev": 3780,
      ", or ": 3781,
      "can I ": 3782,
      "won": 3783,
      "should be ": 3784,
      "itch": 3785,
      "care ": 3786,
      "they are ": 3787,
      "ive ": 3788,
      "ture ": 3789,
      "vid": 3790,
      "ed my ": 3791,
      "I think ": 3792,
      "show": 3793,
      "can be ": 3794,
      "ture": 3795,
      "do you ": 3796,
      "hould ": 3797,
      "bor": 3798,
      "to a ": 3799,
      "reli": 3800,
      "able": 3801,
      "ref": 3802,
      "men": 3803,
      "ically ": 3804,
      "sle": 3805,
      ". L": 3806,
      "fol": 3807,
      "hour": 3808,
      "cho": 3809,
      ". How ": 3810,
      ") \n": 3811,
      "the same ": 3812,
      "s, but ": 3813,
      "6 ": 3814,
      "L ": 3815,
      "ele": 3816,
      "opp": 3817,
      ". O": 3818,
      "ing and ": 3819,
      "consi": 3820,
      "    ": 3821,
      "tor": 3822,
      "wrong ": 3823,
      "cus": 3824,
      "! \n": 3825,
      "enjo": 3826,
      "M ": 3827,
      "family ": 3828,
      "bad": 3829,
      "job ": 3830,
      "live ": 3831,
      "er and ": 3832,
      "try to ": 3833,
      "... ": 3834,
      "not": 3835,
      "ually ": 3836,
      "age": 3837,
      ".  I": 3838,
      "kill": 3839,
      "sul": 3840,
      "a s": 3841,
      "date ": 3842,
      "least ": 3843,
      "came ": 3844,
      "mm": 3845,
      "cas": 3846,
      "team ": 3847,
      "har": 3848,
      "ed.\"\n": 3849,
      "d.\"\n": 3850,
      "already ": 3851,
      "qui": 3852,
      "to make ": 3853,
      "emp": 3854,
      "simp": 3855,
      "sho": 3856,
      "pay ": 3857,
      "pi": 3858,
      "vis": 3859,
      "rec": 3860,
      "opin": 3861,
      "broke ": 3862,
      "emo": 3863,
      "the best ": 3864,
      "s/": 3865,
      "aren't ": 3866,
      "s that ": 3867,
      "believe ": 3868,
      ". E": 3869,
      "comment": 3870,
      "ts of ": 3871,
      "people": 3872,
      "effe": 3873,
      "k you ": 3874,
      "rac": 3875,
      "talking ": 3876,
      "posi": 3877,
      "more than ": 3878,
      "vide": 3879,
      "point ": 3880,
      "against ": 3881,
      "ffic": 3882,
      "ine ": 3883,
      "ies ": 3884,
      "whole ": 3885,
      "she's ": 3886,
      "playing ": 3887,
      " W": 3888,
      "ick ": 3889,
      "fla": 3890,
      "see": 3891,
      "appreci": 3892,
      "decid": 3893,
      "secon": 3894,
      "when I ": 3895,
      "ility ": 3896,
      "craz": 3897,
      "hav": 3898,
      "ick": 3899,
      "this is ": 3900,
      "va": 3901,
      ". He ": 3902,
      "room": 3903,
      "Al": 3904,
      "ath": 3905,
      "los": 3906,
      ". She ": 3907,
      "= ": 3908,
      "sing ": 3909,
      "says ": 3910,
      "dur": 3911,
      "please ": 3912,
      "pur": 3913,
      "+ ": 3914,
      "tell": 3915,
      "import": 3916,
      "igh": 3917,
      "poli": 3918,
      "due to ": 3919,
      "story ": 3920,
      "answ": 3921,
      "stup": 3922,
      "hor": 3923,
      "ON": 3924,
      "they're ": 3925,
      "have been ": 3926,
      "ded ": 3927,
      "way to ": 3928,
      "experience ": 3929,
      ". It's ": 3930,
      "suc": 3931,
      "break ": 3932,
      "wea": 3933,
      "Y ": 3934,
      "deal ": 3935,
      "In": 3936,
      ". But ": 3937,
      "fort": 3938,
      "list": 3939,
      ". If ": 3940,
      "dama": 3941,
      "done ": 3942,
      "problem": 3943,
      "depres": 3944,
      "ex ": 3945,
      "ks for ": 3946,
      ", so ": 3947,
      "ze ": 3948,
      "infor": 3949,
      "dist": 3950,
      "inu": 3951,
      "etc": 3952,
      "edit: ": 3953,
      "produ": 3954,
      "xi": 3955,
      "hal": 3956,
      "wal": 3957,
      "mean ": 3958,
      "buil": 3959,
      "hate ": 3960,
      "it and ": 3961,
      ", but I ": 3962,
      "grou": 3963,
      "took ": 3964,
      "left ": 3965,
      "incre": 3966,
      "OU": 3967,
      "10 ": 3968,
      "es of ": 3969,
      "leas": 3970,
      "argu": 3971,
      "be a ": 3972,
      "defin": 3973,
      "eng": 3974,
      "taking ": 3975,
      "like a ": 3976,
      "\"E": 3977,
      " H": 3978,
      "charac": 3979,
      "show ": 3980,
      "appro": 3981,
      ")\n": 3982,
      "realiz": 3983,
      "are": 3984,
      "r/": 3985,
      "cal": 3986,
      "scre": 3987,
      "that the ": 3988,
      "ending ": 3989,
      "s in ": 3990,
      "ER": 3991,
      "s.  ": 3992,
      "support ": 3993,
      "fron": 3994,
      "smo": 3995,
      "a little ": 3996,
      "stuff ": 3997,
      "line ": 3998,
      "s on ": 3999,
      "lost ": 4000,
      "mus": 4001,
      "ling ": 4002,
      "great": 4003,
      "full ": 4004,
      ", the ": 4005,
      "complet": 4006,
      "wants to ": 4007,
      "tim": 4008,
      "tar": 4009,
      "hould I ": 4010,
      "seem ": 4011,
      " C": 4012,
      "ead of ": 4013,
      " B": 4014,
      "it to ": 4015,
      "ance": 4016,
      "ously ": 4017,
      "t.\"\n": 4018,
      "bly ": 4019,
      "ining ": 4020,
      ". You ": 4021,
      "had a ": 4022,
      "Ne": 4023,
      "stru": 4024,
      "reason ": 4025,
      "mean": 4026,
      ". M": 4027,
      "place ": 4028,
      "wrong": 4029,
      "saying ": 4030,
      "mom ": 4031,
      "maybe ": 4032,
      "working ": 4033,
      "at a ": 4034,
      "AN": 4035,
      "because of ": 4036,
      "sugg": 4037,
      "k, ": 4038,
      "\"R": 4039,
      "learn ": 4040,
      "world ": 4041,
      "yourself ": 4042,
      "school": 4043,
      "players ": 4044,
      "chil": 4045,
      "either ": 4046,
      "leave ": 4047,
      "question": 4048,
      "dou": 4049,
      "ing.\n": 4050,
      "ound": 4051,
      "what you ": 4052,
      "easi": 4053,
      "started ": 4054,
      "cop": 4055,
      "wasn't ": 4056,
      "), ": 4057,
      "dd": 4058,
      "ality ": 4059,
      "far ": 4060,
      "likely ": 4061,
      "pot": 4062,
      ". And ": 4063,
      "better": 4064,
      "accoun": 4065,
      "sha": 4066,
      "turn ": 4067,
      "fun ": 4068,
      "thinking ": 4069,
      "has been ": 4070,
      "head": 4071,
      "ly, ": 4072,
      "cul": 4073,
      "ros": 4074,
      "ali": 4075,
      "kind of ": 4076,
      "\"Th": 4077,
      ". Al": 4078,
      "coming ": 4079,
      "maz": 4080,
      "rather ": 4081,
      "to do": 4082,
      "stra": 4083,
      "here": 4084,
      "little ": 4085,
      "na ": 4086,
      "s\"\n": 4087,
      "stay ": 4088,
      "prof": 4089,
      "marri": 4090,
      "ice ": 4091,
      "become ": 4092,
      "bur": 4093,
      ". We ": 4094,
      "non": 4095,
      "ction": 4096,
      "ed me ": 4097,
      " (": 4098,
      "mul": 4099,
      "stud": 4100,
      "Wh": 4101,
      "'d ": 4102,
      "whe": 4103,
      "led": 4104,
      "home ": 4105,
      "ok": 4106,
      "scar": 4107,
      " F": 4108,
      "s for ": 4109,
      "because I ": 4110,
      "sing": 4111,
      "ster ": 4112,
      "sci": 4113,
      "AT": 4114,
      "such ": 4115,
      "lar": 4116,
      "suck": 4117,
      "free ": 4118,
      "ctive ": 4119,
      "les ": 4120,
      "at least ": 4121,
      "pub": 4122,
      ", and I ": 4123,
      "small ": 4124,
      "temp": 4125,
      "experienc": 4126,
      "once ": 4127,
      "good": 4128,
      "there's ": 4129,
      "days ": 4130,
      "fix ": 4131,
      "ise ": 4132,
      "together ": 4133,
      "mom": 4134,
      "hope ": 4135,
      "shit": 4136,
      "^^": 4137,
      "hard": 4138,
      "8 ": 4139,
      "cla": 4140,
      "hit ": 4141,
      "impro": 4142,
      "months ": 4143,
      "all of ": 4144,
      "medi": 4145,
      "fully ": 4146,
      ", not ": 4147,
      "a few ": 4148,
      ". This ": 4149,
      "tain ": 4150,
      "er to ": 4151,
      "again ": 4152,
      "iting ": 4153,
      "ven": 4154,
      " T": 4155,
      " D": 4156,
      "cour": 4157,
      "rect": 4158,
      "past ": 4159,
      "ties ": 4160,
      "understand ": 4161,
      "completely ": 4162,
      "ach": 4163,
      "night ": 4164,
      "ards ": 4165,
      "bus": 4166,
      "level ": 4167,
      "s the ": 4168,
      "for my ": 4169,
      "ure": 4170,
      "right": 4171,
      "\"\"\"\n": 4172,
      " M": 4173,
      "dru": 4174,
      "im ": 4175,
      "system ": 4176,
      "\"If ": 4177,
      "ed on ": 4178,
      "phone ": 4179,
      "feeling ": 4180,
      "continu": 4181,
      "50": 4182,
      "cli": 4183,
      "dering ": 4184,
      "stic": 4185,
      "ger ": 4186,
      "problem ": 4187,
      "RE": 4188,
      "parents ": 4189,
      "ave ": 4190,
      "t and ": 4191,
      "od": 4192,
      "ated": 4193,
      "inf": 4194,
      "cap": 4195,
      "like to ": 4196,
      "rep": 4197,
      " edit: ": 4198,
      "ban": 4199,
      "ed with ": 4200,
      "stom": 4201,
      "religi": 4202,
      "/ ": 4203,
      "run ": 4204,
      "ed for ": 4205,
      "ind ": 4206,
      "oc": 4207,
      "drun": 4208,
      "abo": 4209,
      "tow": 4210,
      "\"If you ": 4211,
      "cept ": 4212,
      "vor": 4213,
      "more": 4214,
      "devel": 4215,
      "view": 4216,
      "bla": 4217,
      "gon": 4218,
      "ism ": 4219,
      ". Than": 4220,
      "there are ": 4221,
      "dont ": 4222,
      "kill ": 4223,
      "possible ": 4224,
      "gun": 4225,
      "instead of ": 4226,
      "comes ": 4227,
      "resul": 4228,
      "dep": 4229,
      "teach": 4230,
      "]( \n": 4231,
      "ay ": 4232,
      "sear": 4233,
      "\"O": 4234,
      "Red": 4235,
      "--": 4236,
      "c ": 4237,
      "reg": 4238,
      "!!": 4239,
      "drin": 4240,
      "]( ": 4241,
      "gave ": 4242,
      "valu": 4243,
      "se, ": 4244,
      "hy": 4245,
      "open ": 4246,
      "ugh": 4247,
      "als ": 4248,
      "rand": 4249,
      "Un": 4250,
      "ste": 4251,
      "phys": 4252,
      "ny": 4253,
      "irl": 4254,
      "simil": 4255,
      "far": 4256,
      "ush ": 4257,
      "care": 4258,
      "ing my ": 4259,
      "tive": 4260,
      "cts ": 4261,
      "bit": 4262,
      "dad ": 4263,
      "what I ": 4264,
      "wanted to ": 4265,
      "ally": 4266,
      "new": 4267,
      "that is ": 4268,
      "hom": 4269,
      ".  I ": 4270,
      "amoun": 4271,
      "wouldn't ": 4272,
      "a bit ": 4273,
      "stri": 4274,
      "mid": 4275,
      "US": 4276,
      "current ": 4277,
      "we're ": 4278,
      "house ": 4279,
      "team": 4280,
      "clos": 4281,
      "discus": 4282,
      "lose ": 4283,
      "maj": 4284,
      "used to ": 4285,
      "ward ": 4286,
      "d.\n": 4287,
      "drea": 4288,
      "under ": 4289,
      "uck ": 4290,
      "h ": 4291,
      "happy ": 4292,
      "fli": 4293,
      "reddit": 4294,
      "guy": 4295,
      "100": 4296,
      "ba": 4297,
      "car ": 4298,
      "ner ": 4299,
      "situation": 4300,
      "mp ": 4301,
      "bra": 4302,
      "It's ": 4303,
      "ry": 4304,
      "fel": 4305,
      "get a ": 4306,
      "ber": 4307,
      "mind ": 4308,
      "t.\n": 4309,
      "meric": 4310,
      "reddit ": 4311,
      "tain": 4312,
      "oy": 4313,
      "will": 4314,
      "to my ": 4315,
      "together": 4316,
      "lack ": 4317,
      "les": 4318,
      "exist": 4319,
      "iter": 4320,
      "respe": 4321,
      "ig ": 4322,
      "has a ": 4323,
      "ird ": 4324,
      "clo": 4325,
      "was a ": 4326,
      "sw": 4327,
      "cou": 4328,
      "head ": 4329,
      "tical ": 4330,
      "you'll ": 4331,
      "pan": 4332,
      "amaz": 4333,
      "chea": 4334,
      "tried to ": 4335,
      "7 ": 4336,
      "looking for ": 4337,
      "into a ": 4338,
      "people who ": 4339,
      " O": 4340,
      "informa": 4341,
      "No": 4342,
      "perfe": 4343,
      "dating ": 4344,
      "conne": 4345,
      "ates ": 4346,
      "It ": 4347,
      "order ": 4348,
      "norm": 4349,
      "nt ": 4350,
      "tom": 4351,
      "there is ": 4352,
      "sum": 4353,
      "part ": 4354,
      "health": 4355,
      "call ": 4356,
      "build ": 4357,
      "\"Y": 4358,
      "eop": 4359,
      ") and ": 4360,
      "bar": 4361,
      "We ": 4362,
      "that you ": 4363,
      "sal": 4364,
      "lim": 4365,
      "compu": 4366,
      "trac": 4367,
      "much": 4368,
      "tit": 4369,
      "Is ": 4370,
      "week ": 4371,
      "B ": 4372,
      "giving ": 4373,
      "ship ": 4374,
      "loy": 4375,
      "know what ": 4376,
      "G ": 4377,
      "allow": 4378,
      "deal": 4379,
      "st, ": 4380,
      "Chri": 4381,
      "appe": 4382,
      "recomm": 4383,
      "conver": 4384,
      "e with ": 4385,
      "extre": 4386,
      "ns ": 4387,
      "NO": 4388,
      "fix": 4389,
      "ook ": 4390,
      "unless ": 4391,
      "messa": 4392,
      "sty": 4393,
      "ten ": 4394,
      "bun": 4395,
      "point": 4396,
      "avo": 4397,
      "ay": 4398,
      "law": 4399,
      "opinion": 4400,
      "ed.\n": 4401,
      "exc": 4402,
      "matter ": 4403,
      "it's not ": 4404,
      "inten": 4405,
      "asked ": 4406,
      "out, ": 4407,
      "big ": 4408,
      "tot": 4409,
      "e. \n": 4410,
      "cat": 4411,
      "expla": 4412,
      "cially ": 4413,
      "tro": 4414,
      "ward": 4415,
      "ima": 4416,
      ". If you ": 4417,
      "ks": 4418,
      "tan": 4419,
      "in your ": 4420,
      "orry ": 4421,
      "keep": 4422,
      "\"You ": 4423,
      "gl": 4424,
      "whether ": 4425,
      "me.\"\n": 4426,
      "do not ": 4427,
      "eople ": 4428,
      "stly ": 4429,
      "vir": 4430,
      "else": 4431,
      "ten": 4432,
      "ally, ": 4433,
      "necess": 4434,
      "stand": 4435,
      "watch": 4436,
      "sugges": 4437,
      "nat": 4438,
      ", you ": 4439,
      "ult ": 4440,
      "parent": 4441,
      "rible ": 4442,
      "inclu": 4443,
      "\"Don't ": 4444,
      "haven't ": 4445,
      "spea": 4446,
      "ton": 4447,
      "amp": 4448,
      "when you ": 4449,
      "talk to ": 4450,
      "in this ": 4451,
      "form": 4452,
      "room ": 4453,
      "from a ": 4454,
      "awesome ": 4455,
      "but I ": 4456,
      "gan": 4457,
      "decis": 4458,
      "ness ": 4459,
      "women ": 4460,
      "progra": 4461,
      "add ": 4462,
      "with her ": 4463,
      "youn": 4464,
      "prom": 4465,
      "top": 4466,
      "seems ": 4467,
      "into the ": 4468,
      "graph": 4469,
      "En": 4470,
      "how": 4471,
      "even though ": 4472,
      "inc": 4473,
      "feelings ": 4474,
      "usb": 4475,
      "cover": 4476,
      "comfort": 4477,
      ".  S": 4478,
      "Americ": 4479,
      ". They ": 4480,
      "sli": 4481,
      "sorry ": 4482,
      "second ": 4483,
      "potenti": 4484,
      "ors ": 4485,
      " Al": 4486,
      "od ": 4487,
      "fail": 4488,
      "trans": 4489,
      "nice ": 4490,
      "s. I ": 4491,
      "fil": 4492,
      "have no ": 4493,
      "develop": 4494,
      "espe": 4495,
      ". Don't ": 4496,
      "ress ": 4497,
      "prac": 4498,
      "pop": 4499,
      "tion, ": 4500,
      "ign": 4501,
      "hat's ": 4502,
      "ben": 4503,
      "watch ": 4504,
      "use": 4505,
      "ability ": 4506,
      "social ": 4507,
      "tech": 4508,
      "he was ": 4509,
      "def": 4510,
      "del": 4511,
      "han": 4512,
      "thinks ": 4513,
      "ried ": 4514,
      "up and ": 4515,
      "dy": 4516,
      " Edit ": 4517,
      "pis": 4518,
      "does not ": 4519,
      "chance ": 4520,
      "met ": 4521,
      "up, ": 4522,
      "asking ": 4523,
      "fact ": 4524,
      "enjoy ": 4525,
      "K ": 4526,
      "mista": 4527,
      "ses ": 4528,
      "If ": 4529,
      "time to ": 4530,
      "spac": 4531,
      "back to ": 4532,
      "prote": 4533,
      "ago": 4534,
      "raid ": 4535,
      "shitt": 4536,
      "not be ": 4537,
      "player ": 4538,
      "hol": 4539,
      "a new ": 4540,
      "non-": 4541,
      "similar ": 4542,
      "one, ": 4543,
      "worl": 4544,
      "You're ": 4545,
      "personal ": 4546,
      "a bad ": 4547,
      ":)\"\n": 4548,
      "male ": 4549,
      "provid": 4550,
      "means ": 4551,
      "ident": 4552,
      "](\"\n": 4553,
      "start": 4554,
      "class": 4555,
      "multi": 4556,
      "2: ": 4557,
      "feels ": 4558,
      "save ": 4559,
      "later ": 4560,
      "so I ": 4561,
      "spend ": 4562,
      "mother ": 4563,
      "sting ": 4564,
      "compe": 4565,
      "myself": 4566,
      "ket ": 4567,
      "itely ": 4568,
      "turned ": 4569,
      "servic": 4570,
      "ones ": 4571,
      "stat": 4572,
      "edu": 4573,
      "fig": 4574,
      "stupid ": 4575,
      "ire ": 4576,
      "half ": 4577,
      "irlfriend ": 4578,
      "led ": 4579,
      " G": 4580,
      "like the ": 4581,
      "issues ": 4582,
      "situation ": 4583,
      "super ": 4584,
      "college ": 4585,
      "for your ": 4586,
      "ker ": 4587,
      "video ": 4588,
      "net ": 4589,
      "needs ": 4590,
      "iti": 4591,
      "felt ": 4592,
      "wife ": 4593,
      "event": 4594,
      "s to be ": 4595,
      "about it": 4596,
      "ignor": 4597,
      "iness ": 4598,
      "too much ": 4599,
      ". My ": 4600,
      "have the ": 4601,
      "huge ": 4602,
      "ing\"\n": 4603,
      "do?\"\n": 4604,
      "& ": 4605,
      "/r/": 4606,
      "damage ": 4607,
      "control ": 4608,
      "ger": 4609,
      "bel": 4610,
      "anything": 4611,
      "living ": 4612,
      "ve, ": 4613,
      "ne ": 4614,
      "cut ": 4615,
      "ces ": 4616,
      "lead": 4617,
      "s? ": 4618,
      "foo": 4619,
      "hun": 4620,
      "ited ": 4621,
      "dam": 4622,
      "stuff": 4623,
      " U": 4624,
      "don't want to ": 4625,
      "check ": 4626,
      "cent": 4627,
      "concer": 4628,
      "hen ": 4629,
      "AL": 4630,
      "so much ": 4631,
      "trust ": 4632,
      "go to ": 4633,
      "ts and ": 4634,
      "make it ": 4635,
      "Do": 4636,
      "crazy ": 4637,
      "affe": 4638,
      "mber": 4639,
      "pt ": 4640,
      "I just ": 4641,
      "al, ": 4642,
      "he is ": 4643,
      ").\"\n": 4644,
      "entire ": 4645,
      "ach ": 4646,
      "kid ": 4647,
      "over the ": 4648,
      "skill": 4649,
      "group ": 4650,
      "especially ": 4651,
      "sted ": 4652,
      "medic": 4653,
      "given ": 4654,
      "we are ": 4655,
      "form ": 4656,
      "9 ": 4657,
      "pass": 4658,
      "aliz": 4659,
      "cks ": 4660,
      "anxi": 4661,
      "power ": 4662,
      "add": 4663,
      "as the ": 4664,
      "YOU": 4665,
      "up to ": 4666,
      "And ": 4667,
      "\"It's ": 4668,
      "fight ": 4669,
      "fer": 4670,
      "arm": 4671,
      "sever": 4672,
      "is that ": 4673,
      "moving ": 4674,
      "during ": 4675,
      "month ": 4676,
      "gover": 4677,
      "ight": 4678,
      "cted ": 4679,
      "30": 4680,
      "night": 4681,
      "lic ": 4682,
      "level": 4683,
      "o, ": 4684,
      "there": 4685,
      "one of ": 4686,
      "idi": 4687,
      "movi": 4688,
      "invol": 4689,
      "book ": 4690,
      "pped ": 4691,
      "ene": 4692,
      "gf ": 4693,
      "eri": 4694,
      "minut": 4695,
      "exp": 4696,
      "a long ": 4697,
      "think": 4698,
      "question ": 4699,
      "goes ": 4700,
      "ters ": 4701,
      "power": 4702,
      "it for ": 4703,
      "ations ": 4704,
      "three ": 4705,
      "saw ": 4706,
      "takes ": 4707,
      "custom": 4708,
      "might be ": 4709,
      "arly ": 4710,
      "format": 4711,
      "to re": 4712,
      "pick ": 4713,
      "a, ": 4714,
      "diffic": 4715,
      "fic ": 4716,
      "weeks ": 4717,
      "assu": 4718,
      "dog ": 4719,
      "ity, ": 4720,
      "bal": 4721,
      "important ": 4722,
      "apo": 4723,
      "me.\n": 4724,
      ". Not ": 4725,
      "ing me ": 4726,
      "future ": 4727,
      "player": 4728,
      "being a ": 4729,
      " L": 4730,
      "s?\n": 4731,
      "community ": 4732,
      "member ": 4733,
      "tively ": 4734,
      "s?\"\n": 4735,
      "communic": 4736,
      "pleas": 4737,
      "if you're ": 4738,
      "yourself": 4739,
      "m, ": 4740,
      "longer ": 4741,
      "anti": 4742,
      "shouldn't ": 4743,
      "did": 4744,
      "mental ": 4745,
      "men ": 4746,
      "um ": 4747,
      "antly ": 4748,
      "ges ": 4749,
      "An": 4750,
      "late ": 4751,
      "boyfriend": 4752,
      "y of ": 4753,
      "way, ": 4754,
      "logi": 4755,
      "better than ": 4756,
      "ere's ": 4757,
      "ant to ": 4758,
      "employ": 4759,
      "Not ": 4760,
      "basically ": 4761,
      "mate ": 4762,
      "normal ": 4763,
      "blo": 4764,
      "on, ": 4765,
      "oyfriend ": 4766,
      "ined ": 4767,
      "mas": 4768,
      ". Is ": 4769,
      "uses ": 4770,
      "by the ": 4771,
      "gn": 4772,
      "y is ": 4773,
      "Qu": 4774,
      "dow": 4775,
      "system": 4776,
      "ish": 4777,
      "ments ": 4778,
      "Be": 4779,
      "deb": 4780,
      "suppor": 4781,
      "ses": 4782,
      "Do ": 4783,
      "ft": 4784,
      "ins ": 4785,
      "hurt ": 4786,
      "deal with ": 4787,
      "tion of ": 4788,
      "20 ": 4789,
      "orig": 4790,
      "brother ": 4791,
      "rom": 4792,
      "’t ": 4793,
      "advice": 4794,
      ", and the ": 4795,
      "fy ": 4796,
      "I want to ": 4797,
      "she is ": 4798,
      "works ": 4799,
      "expen": 4800,
      "it. \n": 4801,
      "which is ": 4802,
      "fter ": 4803,
      "early ": 4804,
      "case ": 4805,
      "handle ": 4806,
      "stro": 4807,
      "tever ": 4808,
      "bring ": 4809,
      "you, ": 4810,
      "husb": 4811,
      "word": 4812,
      "woman ": 4813,
      "Ar": 4814,
      "pas": 4815,
      "quite ": 4816,
      "...\"\n": 4817,
      "in, ": 4818,
      "tice ": 4819,
      "main ": 4820,
      "couldn't ": 4821,
      "hours ": 4822,
      "(and ": 4823,
      "understand": 4824,
      "the game ": 4825,
      "reading ": 4826,
      "govern": 4827,
      "often ": 4828,
      "face ": 4829,
      "eat ": 4830,
      "rul": 4831,
      "girlfriend": 4832,
      "sometimes ": 4833,
      "ES": 4834,
      "proc": 4835,
      "ould": 4836,
      "beh": 4837,
      "seen ": 4838,
      "at all": 4839,
      "comb": 4840,
      "name ": 4841,
      "a girl ": 4842,
      "mely ": 4843,
      "assh": 4844,
      "St": 4845,
      "I've been ": 4846,
      "ught ": 4847,
      "pul": 4848,
      "figure ": 4849,
      "des ": 4850,
      "figh": 4851,
      "shitty ": 4852,
      "pat": 4853,
      "tail": 4854,
      "ge, ": 4855,
      "number ": 4856,
      "simply ": 4857,
      "solu": 4858,
      "itch ": 4859,
      "ooking ": 4860,
      "had to ": 4861,
      "if they ": 4862,
      "conversa": 4863,
      "erg": 4864,
      "she was ": 4865,
      "you have ": 4866,
      "sts ": 4867,
      "Con": 4868,
      "attemp": 4869,
      "equ": 4870,
      "definitely ": 4871,
      "med ": 4872,
      "lish": 4873,
      "compar": 4874,
      "claim": 4875,
      "fall": 4876,
      "I would ": 4877,
      "afraid ": 4878,
      "ici": 4879,
      "follow": 4880,
      "bull": 4881,
      "out and ": 4882,
      "15": 4883,
      "goo": 4884,
      "ket": 4885,
      "wear": 4886,
      "dle ": 4887,
      "Com": 4888,
      "ounds ": 4889,
      "luck": 4890,
      ". R": 4891,
      "ics ": 4892,
      "ship": 4893,
      "kids ": 4894,
      "spell": 4895,
      "en, ": 4896,
      "es. \n": 4897,
      "s. S": 4898,
      "cool ": 4899,
      "OP": 4900,
      "origin": 4901,
      "ris": 4902,
      "item": 4903,
      "fore": 4904,
      "old": 4905,
      "sexual ": 4906,
      "olu": 4907,
      "row": 4908,
      "light ": 4909,
      "AS": 4910,
      "bab": 4911,
      "time, ": 4912,
      "contact ": 4913,
      "uy ": 4914,
      "problems ": 4915,
      "sible ": 4916,
      "people are ": 4917,
      "trou": 4918,
      "bir": 4919,
      "moved ": 4920,
      "a and ": 4921,
      "pite ": 4922,
      "hea": 4923,
      "is an ": 4924,
      "gs ": 4925,
      "themsel": 4926,
      "ere": 4927,
      "year old ": 4928,
      "requi": 4929,
      "m I ": 4930,
      "atten": 4931,
      "ori": 4932,
      "weight ": 4933,
      "very": 4934,
      "athe": 4935,
      "tion to ": 4936,
      "doct": 4937,
      "others ": 4938,
      "regu": 4939,
      "if it ": 4940,
      "type ": 4941,
      "close ": 4942,
      "For": 4943,
      " Thanks ": 4944,
      "rect ": 4945,
      "could be ": 4946,
      "break": 4947,
      "PS": 4948,
      ". How do I ": 4949,
      "beha": 4950,
      "z ": 4951,
      "econ": 4952,
      "advice on ": 4953,
      "word ": 4954,
      "They ": 4955,
      "univer": 4956,
      "on your ": 4957,
      "ign ": 4958,
      "extremely ": 4959,
      "side": 4960,
      "indi": 4961,
      "whatever ": 4962,
      "hear ": 4963,
      "laz": 4964,
      "Pro": 4965,
      "and a ": 4966,
      "dumb": 4967,
      "vari": 4968,
      "\"my ": 4969,
      "No ": 4970,
      "AM": 4971,
      "towards ": 4972,
      "sense ": 4973,
      "regard": 4974,
      "amount of ": 4975,
      "food ": 4976,
      "lish ": 4977,
      "benef": 4978,
      "I should ": 4979,
      "I'm a ": 4980,
      "> ": 4981,
      ", it ": 4982,
      "term ": 4983,
      "er.\"\n": 4984,
      "ine": 4985,
      "me a ": 4986,
      "ide ": 4987,
      "ended up ": 4988,
      "'t": 4989,
      "emotion": 4990,
      "state ": 4991,
      "possibly ": 4992,
      "const": 4993,
      "consider": 4994,
      "W ": 4995,
      "ory ": 4996,
      "AD": 4997,
      "appreciate ": 4998,
      "clear": 4999,
      "outside ": 5000,
      "Lo": 5001,
      "EN": 5002,
      "manag": 5003,
      "of your ": 5004,
      "psy": 5005,
      "may be ": 5006,
      "seeing ": 5007,
      "tou": 5008,
      "err": 5009,
      "get the ": 5010,
      "out the ": 5011,
      "requ": 5012,
      "AR": 5013,
      "wish ": 5014,
      "k to ": 5015,
      "idence ": 5016,
      ". Now ": 5017,
      "compla": 5018,
      "mag": 5019,
      "cir": 5020,
      "gives ": 5021,
      ". I am ": 5022,
      "looks ": 5023,
      "meet ": 5024,
      "class ": 5025,
      "sour": 5026,
      "company ": 5027,
      "deser": 5028,
      "on and ": 5029,
      "that he ": 5030,
      "realize ": 5031,
      "ded": 5032,
      "avoid ": 5033,
      "OR": 5034,
      "ING": 5035,
      "secur": 5036,
      "clear ": 5037,
      "fru": 5038,
      "bul": 5039,
      "day, ": 5040,
      "plan ": 5041,
      "as I ": 5042,
      "human ": 5043,
      "single ": 5044,
      "as much ": 5045,
      "lots of ": 5046,
      ". (": 5047,
      "the only ": 5048,
      "i'": 5049,
      "pie": 5050,
      "tes ": 5051,
      "jud": 5052,
      "questions ": 5053,
      "view ": 5054,
      "guess ": 5055,
      "\"A ": 5056,
      "Su": 5057,
      "as well ": 5058,
      "obvi": 5059,
      "what to do": 5060,
      "ately ": 5061,
      "proper": 5062,
      "make a ": 5063,
      "19": 5064,
      "downvo": 5065,
      "s me ": 5066,
      "ake ": 5067,
      "y. \n": 5068,
      "spo": 5069,
      "actual ": 5070,
      "told me ": 5071,
      " The ": 5072,
      ", then ": 5073,
      "dom": 5074,
      "There ": 5075,
      "know how to ": 5076,
      ".S": 5077,
      "behavi": 5078,
      "stran": 5079,
      "30 ": 5080,
      "out of the ": 5081,
      "happen ": 5082,
      "ch of ": 5083,
      "ish ": 5084,
      "a big ": 5085,
      "den": 5086,
      "net": 5087,
      "He ": 5088,
      "famil": 5089,
      "king": 5090,
      "everyone": 5091,
      "from my ": 5092,
      "cei": 5093,
      "information ": 5094,
      "champ": 5095,
      "k and ": 5096,
      "times": 5097,
      "Li": 5098,
      "sleep": 5099,
      "has": 5100,
      "i'm ": 5101,
      "share ": 5102,
      "kn": 5103,
      "gue ": 5104,
      "place": 5105,
      "one of the ": 5106,
      ". So ": 5107,
      "accep": 5108,
      "serious ": 5109,
      "12": 5110,
      "win ": 5111,
      "gonna ": 5112,
      "Your ": 5113,
      "with your ": 5114,
      "something": 5115,
      "cked ": 5116,
      "him to ": 5117,
      "typ": 5118,
      "best friend ": 5119,
      "conv": 5120,
      "anxiet": 5121,
      "behind ": 5122,
      "u/": 5123,
      "open": 5124,
      "fur": 5125,
      "pain": 5126,
      "usually ": 5127,
      "answer ": 5128,
      "nega": 5129,
      "girls ": 5130,
      "V ": 5131,
      "short ": 5132,
      "stopp": 5133,
      "cal ": 5134,
      "main": 5135,
      "da ": 5136,
      "UC": 5137,
      "\"Got ": 5138,
      "not sure ": 5139,
      "fl": 5140,
      "ee": 5141,
      "you've ": 5142,
      "pati": 5143,
      "ended ": 5144,
      "likes ": 5145,
      "sister ": 5146,
      "about it ": 5147,
      "I got ": 5148,
      "tra ": 5149,
      "cle ": 5150,
      "because they ": 5151,
      "card ": 5152,
      "es, and ": 5153,
      "seas": 5154,
      "pping ": 5155,
      "just a ": 5156,
      "higher ": 5157,
      "strong ": 5158,
      "damn ": 5159,
      "we can ": 5160,
      "must ": 5161,
      "to see ": 5162,
      "anta": 5163,
      "is it ": 5164,
      "running ": 5165,
      "choic": 5166,
      "have any ": 5167,
      "ular ": 5168,
      "called ": 5169,
      "Mar": 5170,
      "rather than ": 5171,
      "How do I ": 5172,
      "shar": 5173,
      "it's a ": 5174,
      "hell ": 5175,
      "ball": 5176,
      "me for ": 5177,
      "less": 5178,
      "hold ": 5179,
      "sent ": 5180,
      "resear": 5181,
      "about my ": 5182,
      "each other ": 5183,
      "games": 5184,
      "who": 5185,
      "drive ": 5186,
      "in an ": 5187,
      "bud": 5188,
      "childr": 5189,
      "sed": 5190,
      "\"the ": 5191,
      "bos": 5192,
      "Le": 5193,
      "date": 5194,
      "comfortable ": 5195,
      "langu": 5196,
      "change": 5197,
      "party ": 5198,
      "er.\n": 5199,
      "human": 5200,
      "order": 5201,
      "and it ": 5202,
      ". Just ": 5203,
      "till ": 5204,
      "despite ": 5205,
      "OP ": 5206,
      "match": 5207,
      "feeling": 5208,
      "you to ": 5209,
      "gott": 5210,
      "what's ": 5211,
      "above ": 5212,
      "as well": 5213,
      "ord": 5214,
      "dem": 5215,
      "LO": 5216,
      "accident": 5217,
      "in love ": 5218,
      "guil": 5219,
      "part of ": 5220,
      "taken ": 5221,
      "y/": 5222,
      "sla": 5223,
      "Ke": 5224,
      "web": 5225,
      "that she ": 5226,
      "box ": 5227,
      "forc": 5228,
      "Thanks ": 5229,
      "text ": 5230,
      "artic": 5231,
      "son": 5232,
      "e-": 5233,
      "cy": 5234,
      "focu": 5235,
      "ds of ": 5236,
      "fiel": 5237,
      "ava": 5238,
      "poo": 5239,
      "not to ": 5240,
      "money": 5241,
      "not a ": 5242,
      "paid ": 5243,
      "weird ": 5244,
      "Can": 5245,
      " EDIT ": 5246,
      "set": 5247,
      "bri": 5248,
      "ideas ": 5249,
      "house": 5250,
      "in and ": 5251,
      "read the ": 5252,
      "version ": 5253,
      "ing. \n": 5254,
      "I know ": 5255,
      "alone ": 5256,
      "son ": 5257,
      "twi": 5258,
      "zz": 5259,
      "irl ": 5260,
      "if the ": 5261,
      "butt": 5262,
      "finally ": 5263,
      "examp": 5264,
      "ing/": 5265,
      ", but it ": 5266,
      "how much ": 5267,
      "cannot ": 5268,
      "ject": 5269,
      "I can't ": 5270,
      "comment ": 5271,
      "grand": 5272,
      "slow": 5273,
      "san": 5274,
      "poor ": 5275,
      "willing to ": 5276,
      "sound ": 5277,
      "liter": 5278,
      "quick": 5279,
      "Po": 5280,
      "random ": 5281,
      "s a ": 5282,
      "gy": 5283,
      "ema": 5284,
      "abus": 5285,
      "I had ": 5286,
      "clus": 5287,
      "pay": 5288,
      "es that ": 5289,
      "\"It ": 5290,
      "feed": 5291,
      "yet ": 5292,
      "hone": 5293,
      "Ri": 5294,
      "cool": 5295,
      "acting ": 5296,
      "issue ": 5297,
      "De": 5298,
      "tically ": 5299,
      "IS": 5300,
      "her to ": 5301,
      "Christi": 5302,
      "home": 5303,
      "about": 5304,
      "gam": 5305,
      "land": 5306,
      "makes me ": 5307,
      "ism": 5308,
      "how do I ": 5309,
      "enough to ": 5310,
      "\"\" and ": 5311,
      "ith ": 5312,
      "wed": 5313,
      "ste ": 5314,
      "sleep ": 5315,
      "with me ": 5316,
      "worked ": 5317,
      "gle ": 5318,
      "Mo": 5319,
      "ght, ": 5320,
      "consider ": 5321,
      "U ": 5322,
      "50 ": 5323,
      "amazing ": 5324,
      "ki": 5325,
      "prog": 5326,
      "US ": 5327,
      ". Any ": 5328,
      "bit ": 5329,
      "ession": 5330,
      "thanks ": 5331,
      "wait ": 5332,
      "allow ": 5333,
      "scen": 5334,
      "ker": 5335,
      "attrac": 5336,
      "sil": 5337,
      "no one ": 5338,
      "future": 5339,
      "help me ": 5340,
      " *": 5341,
      "you don't ": 5342,
      "and is ": 5343,
      "ath ": 5344,
      "that they ": 5345,
      "mind": 5346,
      ". Should I ": 5347,
      "worried ": 5348,
      "worry ": 5349,
      "200": 5350,
      "(or ": 5351,
      "angr": 5352,
      "along ": 5353,
      "tis": 5354,
      "father ": 5355,
      "wanted ": 5356,
      "self-": 5357,
      "ace": 5358,
      "at my ": 5359,
      "based ": 5360,
      "hoo": 5361,
      "fra": 5362,
      "quality ": 5363,
      "bought ": 5364,
      "ink ": 5365,
      "action ": 5366,
      "ority ": 5367,
      "everything": 5368,
      "want to be ": 5369,
      "let me ": 5370,
      "stop": 5371,
      "for me": 5372,
      "her, ": 5373,
      "major ": 5374,
      "computer ": 5375,
      "engin": 5376,
      "are the ": 5377,
      "um": 5378,
      "pho": 5379,
      "mother": 5380,
      "mou": 5381,
      "strong": 5382,
      "specific ": 5383,
      "’s ": 5384,
      "1.": 5385,
      "legal ": 5386,
      "moder": 5387,
      "smar": 5388,
      "expect": 5389,
      "who is ": 5390,
      "write ": 5391,
      "ing with ": 5392,
      "LE": 5393,
      "character": 5394,
      "bott": 5395,
      "you.\"\n": 5396,
      "40": 5397,
      "s) ": 5398,
      "totally ": 5399,
      "possible": 5400,
      "action": 5401,
      "ject ": 5402,
      "ago ": 5403,
      "] ": 5404,
      "degre": 5405,
      "itting ": 5406,
      "elp": 5407,
      "air": 5408,
      "knows ": 5409,
      "advanta": 5410,
      "load": 5411,
      "story": 5412,
      "stuck ": 5413,
      "\"We ": 5414,
      "stupid": 5415,
      "suck ": 5416,
      "general ": 5417,
      "is, ": 5418,
      "interested in ": 5419,
      "sign": 5420,
      "sort of ": 5421,
      "apart": 5422,
      "ves": 5423,
      "mone": 5424,
      "character ": 5425,
      "destro": 5426,
      "like": 5427,
      "time and ": 5428,
      "create ": 5429,
      "expect ": 5430,
      "to have ": 5431,
      "econom": 5432,
      "cost ": 5433,
      "jus": 5434,
      "que ": 5435,
      "avail": 5436,
      "her and ": 5437,
      "experience": 5438,
      "jun": 5439,
      "jer": 5440,
      "favor": 5441,
      "knowled": 5442,
      "mechan": 5443,
      "worse ": 5444,
      "exact": 5445,
      "child ": 5446,
      "ade ": 5447,
      "sett": 5448,
      "erc": 5449,
      "apologi": 5450,
      "a cou": 5451,
      "online ": 5452,
      "18": 5453,
      "anno": 5454,
      "strea": 5455,
      "find a ": 5456,
      "yed ": 5457,
      "grow": 5458,
      ", but the ": 5459,
      "do it ": 5460,
      " >": 5461,
      "bunch of ": 5462,
      "get": 5463,
      "camp": 5464,
      "after": 5465,
      "        ": 5466,
      "matter": 5467,
      "otherwi": 5468,
      "multiple ": 5469,
      "as you ": 5470,
      "right now": 5471,
      "awk": 5472,
      "push": 5473,
      "Fuck ": 5474,
      "ani": 5475,
      "them to ": 5476,
      "a is ": 5477,
      "solut": 5478,
      "a lo": 5479,
      "ual": 5480,
      "bat": 5481,
      "based on ": 5482,
      "competi": 5483,
      "\"I am ": 5484,
      "appear": 5485,
      "rely ": 5486,
      "but": 5487,
      "force ": 5488,
      "eless ": 5489,
      "the most ": 5490,
      "free to ": 5491,
      "currently ": 5492,
      "detail": 5493,
      "\"I think ": 5494,
      "threat": 5495,
      "send ": 5496,
      "played ": 5497,
      "water ": 5498,
      "olog": 5499,
      "begin": 5500,
      "bon": 5501,
      "SO ": 5502,
      "But ": 5503,
      "eed ": 5504,
      "ends ": 5505,
      "made me ": 5506,
      "as an ": 5507,
      "and my ": 5508,
      "ging ": 5509,
      "/u/": 5510,
      "ing, and ": 5511,
      "stres": 5512,
      "distance ": 5513,
      "sus": 5514,
      "sug": 5515,
      "wel": 5516,
      "and not ": 5517,
      "aver": 5518,
      "I feel ": 5519,
      "mine ": 5520,
      "dar": 5521,
      "difficul": 5522,
      "mostly ": 5523,
      "each other": 5524,
      "tell me ": 5525,
      "because it ": 5526,
      "shot ": 5527,
      "cial ": 5528,
      "lap": 5529,
      "natur": 5530,
      "ite": 5531,
      "adm": 5532,
      "prev": 5533,
      "needs to ": 5534,
      "with no ": 5535,
      "middle ": 5536,
      "frea": 5537,
      "hand ": 5538,
      "health ": 5539,
      "y, and ": 5540,
      "decision": 5541,
      "Ro": 5542,
      "correct": 5543,
      "acros": 5544,
      "wondering ": 5545,
      "terrible ": 5546,
      "individ": 5547,
      "If you ": 5548,
      "Ex": 5549,
      "Jo": 5550,
      "believ": 5551,
      "certain ": 5552,
      "bitch": 5553,
      "es in ": 5554,
      "MO": 5555,
      "direct": 5556,
      "row ": 5557,
      "sch": 5558,
      "fat ": 5559,
      "that it ": 5560,
      "first": 5561,
      "she": 5562,
      "words ": 5563,
      ". Ma": 5564,
      "opinion ": 5565,
      "es\n": 5566,
      "\"Girlfriend ": 5567,
      "ily ": 5568,
      "laugh": 5569,
      "extra ": 5570,
      "you will ": 5571,
      "spent ": 5572,
      "mbers ": 5573,
      "interest ": 5574,
      "cheated ": 5575,
      "world": 5576,
      "tion and ": 5577,
      "EL": 5578,
      "ever, ": 5579,
      "became ": 5580,
      ". No ": 5581,
      "front ": 5582,
      "hot ": 5583,
      "big": 5584,
      "recommend ": 5585,
      "board ": 5586,
      ".  A": 5587,
      "away": 5588,
      "account ": 5589,
      "test ": 5590,
      "having a ": 5591,
      "exactly ": 5592,
      "u ": 5593,
      "...\n": 5594,
      "picture": 5595,
      "recor": 5596,
      "bility ": 5597,
      "caught ": 5598,
      "and I'm ": 5599,
      "are not ": 5600,
      "acks ": 5601,
      "price ": 5602,
      "internet ": 5603,
      "ed to be ": 5604,
      "version": 5605,
      "fair": 5606,
      "of this ": 5607,
      "I'm not sure ": 5608,
      "16": 5609,
      "riend ": 5610,
      "lack of ": 5611,
      "ged ": 5612,
      "potential ": 5613,
      "load ": 5614,
      "when it ": 5615,
      "15 ": 5616,
      "offer": 5617,
      ".\"\" ": 5618,
      "got a ": 5619,
      "what": 5620,
      "white ": 5621,
      "rat": 5622,
      "hard to ": 5623,
      "absolut": 5624,
      "hon": 5625,
      "or the ": 5626,
      "motiv": 5627,
      "knew ": 5628,
      "\"This ": 5629,
      "I could ": 5630,
      "ball ": 5631,
      "improve ": 5632,
      "ton ": 5633,
      "young ": 5634,
      "public ": 5635,
      "ingly ": 5636,
      "them.\"\n": 5637,
      "organ": 5638,
      "que": 5639,
      "government ": 5640,
      "PD": 5641,
      "dog": 5642,
      "husband ": 5643,
      "leaving ": 5644,
      "Par": 5645,
      "fire": 5646,
      "remember ": 5647,
      "surpri": 5648,
      "profession": 5649,
      "kis": 5650,
      "up the ": 5651,
      "antas": 5652,
      "test": 5653,
      "ffici": 5654,
      "\"What ": 5655,
      "make sure ": 5656,
      "know if ": 5657,
      "viol": 5658,
      "ching ": 5659,
      "lar ": 5660,
      "tried ": 5661,
      "SO": 5662,
      "you should ": 5663,
      "ed. \n": 5664,
      "store ": 5665,
      "option": 5666,
      "ask": 5667,
      "years, ": 5668,
      "appar": 5669,
      "societ": 5670,
      "partic": 5671,
      "effor": 5672,
      "ili": 5673,
      "for me ": 5674,
      "ent, ": 5675,
      "a couple ": 5676,
      "what the ": 5677,
      "indu": 5678,
      "bed ": 5679,
      "\"How ": 5680,
      "fast ": 5681,
      "ital ": 5682,
      "thought": 5683,
      "several ": 5684,
      "buying ": 5685,
      "need a ": 5686,
      "). \n": 5687,
      "crea": 5688,
      "light": 5689,
      "grade ": 5690,
      "anymore": 5691,
      "term": 5692,
      "previ": 5693,
      "breaking ": 5694,
      "Or ": 5695,
      "fine ": 5696,
      "idea": 5697,
      "bes": 5698,
      "telling ": 5699,
      "true ": 5700,
      "in adv": 5701,
      "dead ": 5702,
      "paying ": 5703,
      "dick": 5704,
      "broken ": 5705,
      "content ": 5706,
      ". I don't ": 5707,
      "going to be ": 5708,
      "one.\"\n": 5709,
      ". Do ": 5710,
      "try and ": 5711,
      "face": 5712,
      "initi": 5713,
      "\"In ": 5714,
      "known ": 5715,
      "s: ": 5716,
      "perfect ": 5717,
      "sell ": 5718,
      "os ": 5719,
      "safe": 5720,
      "reco": 5721,
      "ak": 5722,
      "that was ": 5723,
      "pregn": 5724,
      "opport": 5725,
      "s\"\" ": 5726,
      ", just ": 5727,
      "music ": 5728,
      "Bo": 5729,
      "nearly ": 5730,
      "rest ": 5731,
      "meth": 5732,
      "black ": 5733,
      "suppos": 5734,
      "him and ": 5735,
      "physical ": 5736,
      "to go ": 5737,
      "increas": 5738,
      "drop ": 5739,
      "don't know how to ": 5740,
      "difference ": 5741,
      "roll": 5742,
      "server": 5743,
      "depend": 5744,
      "neigh": 5745,
      "Reddit": 5746,
      "pun": 5747,
      "success": 5748,
      "absolutely ": 5749,
      "easy ": 5750,
      "hour ": 5751,
      "book": 5752,
      "OO": 5753,
      "style ": 5754,
      "choose ": 5755,
      "Bu": 5756,
      "upset ": 5757,
      "points ": 5758,
      "fall ": 5759,
      ". There ": 5760,
      ", it's ": 5761,
      "female ": 5762,
      "list ": 5763,
      "common ": 5764,
      "your own ": 5765,
      "X ": 5766,
      "emotional ": 5767,
      "law ": 5768,
      "ame ": 5769,
      "loves ": 5770,
      "decent ": 5771,
      ". In ": 5772,
      "with me": 5773,
      "clas": 5774,
      "kic": 5775,
      "fell ": 5776,
      "away from ": 5777,
      "squ": 5778,
      "vs ": 5779,
      "NOT ": 5780,
      "Sp": 5781,
      "fit ": 5782,
      "talk": 5783,
      "fied ": 5784,
      " -": 5785,
      "lab": 5786,
      "es for ": 5787,
      "survi": 5788,
      "Ad": 5789,
      "or, ": 5790,
      "lead ": 5791,
      "\"\" \n": 5792,
      "doub": 5793,
      "ur ": 5794,
      "because he ": 5795,
      "I love ": 5796,
      "complete ": 5797,
      "25": 5798,
      "starting ": 5799,
      "not the ": 5800,
      "through": 5801,
      "you guys ": 5802,
      "priv": 5803,
      "original ": 5804,
      "ST": 5805,
      "except ": 5806,
      "we were ": 5807,
      "spa": 5808,
      "die ": 5809,
      "drunk ": 5810,
      "near ": 5811,
      " What ": 5812,
      "enough": 5813,
      "ely": 5814,
      "said": 5815,
      "ghts ": 5816,
      "defen": 5817,
      "av": 5818,
      "bf ": 5819,
      "le.\n": 5820,
      "do?\n": 5821,
      "parti": 5822,
      "ia": 5823,
      "end up ": 5824,
      "site ": 5825,
      "gram": 5826,
      "THE ": 5827,
      "putting ": 5828,
      "nific": 5829,
      "soon": 5830,
      "timat": 5831,
      "by a ": 5832,
      "weapon": 5833,
      "addic": 5834,
      "super": 5835,
      "separ": 5836,
      "we have ": 5837,
      "present": 5838,
      "ron": 5839,
      "course ": 5840,
      "or not": 5841,
      "mad ": 5842,
      "found out ": 5843,
      "uro": 5844,
      "figure out ": 5845,
      "sure": 5846,
      "and then ": 5847,
      "fan": 5848,
      "time.\"\n": 5849,
      "11": 5850,
      "turns ": 5851,
      "edit ": 5852,
      ". :": 5853,
      "ers, ": 5854,
      "agg": 5855,
      "eating ": 5856,
      "about how ": 5857,
      "what to do ": 5858,
      "recei": 5859,
      "I didn't ": 5860,
      "mov": 5861,
      "to help ": 5862,
      "than the ": 5863,
      "Wor": 5864,
      "losing ": 5865,
      "finding ": 5866,
      "tip": 5867,
      "hos": 5868,
      "fer ": 5869,
      "swe": 5870,
      "front of ": 5871,
      " N": 5872,
      "scal": 5873,
      ". Also, ": 5874,
      "way.\"\n": 5875,
      "box": 5876,
      "oes ": 5877,
      "and now ": 5878,
      "perfect": 5879,
      ":\"\n": 5880,
      "GF ": 5881,
      ".\"\"\"\n": 5882,
      "appli": 5883,
      "out with ": 5884,
      "memor": 5885,
      ".  The ": 5886,
      "controll": 5887,
      "lower ": 5888,
      "mess": 5889,
      "broke up with ": 5890,
      "am I ": 5891,
      "Reddit ": 5892,
      "tion.\"\n": 5893,
      "stre": 5894,
      "accept ": 5895,
      "student ": 5896,
      "girl, ": 5897,
      "Au": 5898,
      "as it ": 5899,
      "is to ": 5900,
      "feat": 5901,
      "pretty much ": 5902,
      "ffe": 5903,
      "my boyfriend ": 5904,
      "follow ": 5905,
      "the right ": 5906,
      "got to ": 5907,
      "cation ": 5908,
      "gone ": 5909,
      ". Also ": 5910,
      "perfor": 5911,
      "chi": 5912,
      "ren": 5913,
      "say": 5914,
      "step": 5915,
      "yet": 5916,
      "game, ": 5917,
      "ead": 5918,
      "my first ": 5919,
      "finan": 5920,
      "cheap ": 5921,
      "couple ": 5922,
      "treat": 5923,
      "on this ": 5924,
      "ess, ": 5925,
      "Se": 5926,
      "no longer ": 5927,
      "80": 5928,
      "move": 5929,
      "hope": 5930,
      "ment, ": 5931,
      "ken": 5932,
      "incredi": 5933,
      "tran": 5934,
      "easily ": 5935,
      "suic": 5936,
      "fear ": 5937,
      "IC": 5938,
      "stand ": 5939,
      "PC": 5940,
      "2.": 5941,
      "](\n": 5942,
      " If ": 5943,
      "death ": 5944,
      "alter": 5945,
      "get to ": 5946,
      "simple ": 5947,
      "dick ": 5948,
      "timate ": 5949,
      "60": 5950,
      "vote ": 5951,
      "with an ": 5952,
      "alco": 5953,
      "soon ": 5954,
      "s (": 5955,
      "seem to ": 5956,
      "respect ": 5957,
      "teacher ": 5958,
      "step ": 5959,
      "daugh": 5960,
      "rage ": 5961,
      "message ": 5962,
      "normal": 5963,
      "lation ": 5964,
      "business ": 5965,
      "state": 5966,
      "turn": 5967,
      "s or ": 5968,
      "if he ": 5969,
      "friend's ": 5970,
      "signific": 5971,
      "ering ": 5972,
      "did not ": 5973,
      "anim": 5974,
      "relev": 5975,
      "IL": 5976,
      "because the ": 5977,
      "le.\"\n": 5978,
      "? A": 5979,
      "worth": 5980,
      "arily ": 5981,
      "talking to ": 5982,
      "Keep ": 5983,
      "affor": 5984,
      "rap": 5985,
      "when they ": 5986,
      "AC": 5987,
      "rel": 5988,
      ",00": 5989,
      "through the ": 5990,
      "caused ": 5991,
      "love": 5992,
      "eah": 5993,
      "oppos": 5994,
      "tin": 5995,
      "child": 5996,
      "justi": 5997,
      "if I should ": 5998,
      "anal": 5999,
      "approach ": 6000,
      "Me": 6001,
      "in order ": 6002,
      "acked ": 6003,
      "small": 6004,
      "ke, ": 6005,
      "\"\", ": 6006,
      "in his ": 6007,
      "Got ": 6008,
      "ched ": 6009,
      "gar": 6010,
      "is still ": 6011,
      "their own ": 6012,
      "y\n": 6013,
      "off the ": 6014,
      "suran": 6015,
      "gotten ": 6016,
      "ma ": 6017,
      "\"Boyfriend ": 6018,
      "rup": 6019,
      "met": 6020,
      "have": 6021,
      "awesom": 6022,
      "hang ": 6023,
      "value ": 6024,
      "s' ": 6025,
      "int ": 6026,
      "older ": 6027,
      "regre": 6028,
      "for an ": 6029,
      "condi": 6030,
      "ers are ": 6031,
      "descri": 6032,
      "scri": 6033,
      "police ": 6034,
      "lives ": 6035,
      "chall": 6036,
      "positive ": 6037,
      "key ": 6038,
      "Can ": 6039,
      "fantas": 6040,
      "consist": 6041,
      "gradu": 6042,
      "cheat": 6043,
      "drug": 6044,
      "faul": 6045,
      "the first ": 6046,
      "purcha": 6047,
      "hasn't ": 6048,
      "best": 6049,
      "would you ": 6050,
      "ce, ": 6051,
      "about a ": 6052,
      "straight ": 6053,
      "decided to ": 6054,
      "it will ": 6055,
      "gun ": 6056,
      " And ": 6057,
      ". Please ": 6058,
      "encou": 6059,
      "s with ": 6060,
      ". A ": 6061,
      "disagre": 6062,
      "is just ": 6063,
      "awesome": 6064,
      "therap": 6065,
      "rest": 6066,
      "Co": 6067,
      "tual ": 6068,
      "trouble ": 6069,
      "strugg": 6070,
      "ge of ": 6071,
      "New ": 6072,
      "enga": 6073,
      "at all ": 6074,
      "tips ": 6075,
      "e\n": 6076,
      "key": 6077,
      "? What ": 6078,
      "credit ": 6079,
      "themselves ": 6080,
      "and/": 6081,
      "12 ": 6082,
      "ky ": 6083,
      "cant ": 6084,
      "Ph": 6085,
      "14": 6086,
      "correct ": 6087,
      "cow": 6088,
      "anger": 6089,
      "formatt": 6090,
      "stitu": 6091,
      "jeal": 6092,
      "via ": 6093,
      ". I think ": 6094,
      "ed to the ": 6095,
      "se.\"\n": 6096,
      "server ": 6097,
      "dad": 6098,
      "ender ": 6099,
      "Eng": 6100,
      "resour": 6101,
      "pain ": 6102,
      "\"I don't ": 6103,
      " AN": 6104,
      "that are ": 6105,
      "flo": 6106,
      "out.\"\n": 6107,
      "hy ": 6108,
      "provide ": 6109,
      "Why ": 6110,
      "in-": 6111,
      "OM": 6112,
      "that we ": 6113,
      "want a ": 6114,
      "ither ": 6115,
      "thoughts ": 6116,
      ".  H": 6117,
      "stopped ": 6118,
      "prefer": 6119,
      "up for ": 6120,
      "screw": 6121,
      "that will ": 6122,
      ", I'm ": 6123,
      "accur": 6124,
      "progres": 6125,
      "truly ": 6126,
      "en to ": 6127,
      "birth": 6128,
      "mach": 6129,
      "have an ": 6130,
      "eventually ": 6131,
      "require": 6132,
      "energ": 6133,
      "use the ": 6134,
      "mention": 6135,
      "stick ": 6136,
      "emb": 6137,
      "tomor": 6138,
      "tend ": 6139,
      "in our ": 6140,
      "suggestions ": 6141,
      "like this ": 6142,
      "ped": 6143,
      "I will ": 6144,
      "worst ": 6145,
      "gay ": 6146,
      " P.S": 6147,
      "ground ": 6148,
      "\"There ": 6149,
      "ons ": 6150,
      "Thank you ": 6151,
      "local ": 6152,
      "\"U": 6153,
      "explain ": 6154,
      "perspe": 6155,
      "mini": 6156,
      "ore": 6157,
      "ran ": 6158,
      "mode": 6159,
      "inve": 6160,
      "someone who ": 6161,
      "appo": 6162,
      "ER ": 6163,
      " R": 6164,
      "elp ": 6165,
      "fair ": 6166,
      "miss ": 6167,
      "lig": 6168,
      "him, ": 6169,
      "redu": 6170,
      "acy ": 6171,
      "skill ": 6172,
      "\"\".\"\n": 6173,
      " Thanks for ": 6174,
      "throw": 6175,
      "writ": 6176,
      "God ": 6177,
      "fucked ": 6178,
      "Gre": 6179,
      "recently ": 6180,
      "fill": 6181,
      "VER": 6182,
      "what is ": 6183,
      "People ": 6184,
      "PC ": 6185,
      "healthy ": 6186,
      "arr": 6187,
      "wro": 6188,
      "\"if you ": 6189,
      "sto": 6190,
      "mum ": 6191,
      "e're ": 6192,
      "text": 6193,
      "? S": 6194,
      "what they ": 6195,
      "made a ": 6196,
      "blu": 6197,
      "sounds ": 6198,
      "es the ": 6199,
      "ef ": 6200,
      "impos": 6201,
      "Edit": 6202,
      "himself ": 6203,
      "history ": 6204,
      "saved ": 6205,
      "seems to ": 6206,
      "ja": 6207,
      "sequ": 6208,
      "building ": 6209,
      "as long ": 6210,
      "e, and ": 6211,
      "nyone ": 6212,
      "my girlfriend ": 6213,
      "argument ": 6214,
      "doll": 6215,
      "by": 6216,
      "literally ": 6217,
      "dream ": 6218,
      "evidence ": 6219,
      "tter ": 6220,
      "liked ": 6221,
      "group": 6222,
      "this, ": 6223,
      " Also, ": 6224,
      "brother": 6225,
      "negative ": 6226,
      "gaming ": 6227,
      "writing ": 6228,
      "ed that ": 6229,
      "respect": 6230,
      "guys": 6231,
      "dows ": 6232,
      "ency ": 6233,
      "friends, ": 6234,
      "mix": 6235,
      "throw ": 6236,
      "appropri": 6237,
      "or a ": 6238,
      "Wi": 6239,
      "people, ": 6240,
      "expensive ": 6241,
      "quit ": 6242,
      "sin": 6243,
      "Win": 6244,
      "heard ": 6245,
      "ler": 6246,
      "loved ": 6247,
      "regi": 6248,
      "a brea": 6249,
      "safe ": 6250,
      "proce": 6251,
      "with her": 6252,
      "need help ": 6253,
      "PDAT": 6254,
      "100% ": 6255,
      " is ": 6256,
      "with this ": 6257,
      "would have ": 6258,
      "you.\n": 6259,
      "ator": 6260,
      "ope ": 6261,
      "equi": 6262,
      "before": 6263,
      "attack ": 6264,
      "dead": 6265,
      "irst ": 6266,
      ". That ": 6267,
      "vy ": 6268,
      "ace ": 6269,
      ". Re": 6270,
      "clean": 6271,
      "bs ": 6272,
      "\"K": 6273,
      "emotionally ": 6274,
      "!  ": 6275,
      "\"Be": 6276,
      "imagin": 6277,
      "suggestion": 6278,
      "mic": 6279,
      "ning": 6280,
      "ator ": 6281,
      "trip ": 6282,
      "asshole ": 6283,
      "keeps ": 6284,
      "my friend ": 6285,
      "....": 6286,
      ".  T": 6287,
      "deter": 6288,
      "hang": 6289,
      "canc": 6290,
      "troll": 6291,
      "knowing ": 6292,
      "out to ": 6293,
      "s? \n": 6294,
      "with his ": 6295,
      "creep": 6296,
      "work, ": 6297,
      "at this ": 6298,
      "-- ": 6299,
      "terri": 6300,
      "Please ": 6301,
      "Di": 6302,
      "thank you ": 6303,
      "constantly ": 6304,
      "roommate ": 6305,
      "ident ": 6306,
      "cover ": 6307,
      "offer ": 6308,
      "and/or ": 6309,
      "sucks ": 6310,
      "them, ": 6311,
      "porn ": 6312,
      " If you ": 6313,
      "audi": 6314,
      "exerc": 6315,
      "identi": 6316,
      "control": 6317,
      "table ": 6318,
      "back and ": 6319,
      "in front of ": 6320,
      "\"I was ": 6321,
      "religious ": 6322,
      "curi": 6323,
      "din": 6324,
      "intro": 6325,
      "secre": 6326,
      "intel": 6327,
      "Ver": 6328,
      "immedi": 6329,
      "lay": 6330,
      "ity.\"\n": 6331,
      "13": 6332,
      "generally ": 6333,
      "wonder": 6334,
      "about this ": 6335,
      "anyway": 6336,
      "doesn't mean ": 6337,
      "if she ": 6338,
      "repe": 6339,
      "s is ": 6340,
      "up.\"\n": 6341,
      "Fi": 6342,
      "ing for ": 6343,
      " Thank you ": 6344,
      " So ": 6345,
      "increase ": 6346,
      "ctiv": 6347,
      "piece ": 6348,
      "process ": 6349,
      "give me ": 6350,
      "learning ": 6351,
      "come to ": 6352,
      "answer": 6353,
      "ts to ": 6354,
      "average ": 6355,
      "fri": 6356,
      "tract": 6357,
      "the other ": 6358,
      "any other ": 6359,
      "changed ": 6360,
      "death": 6361,
      "100 ": 6362,
      "ly.\"\n": 6363,
      "nothing": 6364,
      "cat ": 6365,
      "gain ": 6366,
      "mee": 6367,
      "clari": 6368,
      "ing it ": 6369,
      "because she ": 6370,
      "mani": 6371,
      "to be a ": 6372,
      "door ": 6373,
      "fire ": 6374,
      "sudd": 6375,
      "sof": 6376,
      " Sorry ": 6377,
      "mon ": 6378,
      "ch, ": 6379,
      "cum": 6380,
      "research ": 6381,
      "pissed ": 6382,
      "if it's ": 6383,
      "mention ": 6384,
      "able, ": 6385,
      "refer": 6386,
      "city ": 6387,
      "auth": 6388,
      "es, but ": 6389,
      "eat": 6390,
      "re-": 6391,
      "beat ": 6392,
      "gni": 6393,
      "on.\"\n": 6394,
      "do to ": 6395,
      "drug ": 6396,
      "ts, ": 6397,
      "in their ": 6398,
      "appreciated": 6399,
      "plat": 6400,
      "walk ": 6401,
      "space ": 6402,
      "es/": 6403,
      "clean ": 6404,
      "accidentally ": 6405,
      "ed, and ": 6406,
      "wer": 6407,
      ", she ": 6408,
      "over a ": 6409,
      "those who ": 6410,
      "lor": 6411,
      "ex-": 6412,
      "beau": 6413,
      "puni": 6414,
      "my life ": 6415,
      "when I was ": 6416,
      "\"don't ": 6417,
      "the fuck ": 6418,
      "slight": 6419,
      "ence, ": 6420,
      "chur": 6421,
      "Get ": 6422,
      "rais": 6423,
      "hile ": 6424,
      "fat": 6425,
      "risk ": 6426,
      "ced ": 6427,
      "sun": 6428,
      "brought ": 6429,
      ". When ": 6430,
      "This is ": 6431,
      "full": 6432,
      "board": 6433,
      "sent": 6434,
      "forward ": 6435,
      "scared ": 6436,
      "fight": 6437,
      "be able to ": 6438,
      "for this ": 6439,
      "viron": 6440,
      "further ": 6441,
      "hot": 6442,
      "country ": 6443,
      "Ra": 6444,
      "ateg": 6445,
      "nos": 6446,
      "smoke ": 6447,
      "you get ": 6448,
      "compan": 6449,
      "AA": 6450,
      "spi": 6451,
      "photo": 6452,
      "tire": 6453,
      "no matter ": 6454,
      "horrible ": 6455,
      "siz": 6456,
      "responsi": 6457,
      "free": 6458,
      "close to ": 6459,
      "total ": 6460,
      "vol": 6461,
      "itten ": 6462,
      "looked ": 6463,
      "90": 6464,
      "large ": 6465,
      "para": 6466,
      "sugge": 6467,
      "explo": 6468,
      "tax": 6469,
      "picture ": 6470,
      "lot ": 6471,
      "dream": 6472,
      "grow ": 6473,
      "minutes ": 6474,
      "Also, ": 6475,
      "spir": 6476,
      "complic": 6477,
      "Mon": 6478,
      "decide ": 6479,
      "decision ": 6480,
      "I get ": 6481,
      "full of ": 6482,
      "causing ": 6483,
      "insuran": 6484,
      "\"Ne": 6485,
      "ks!\"\n": 6486,
      "my own ": 6487,
      "gri": 6488,
      ":(": 6489,
      "that, ": 6490,
      "air ": 6491,
      "lying ": 6492,
      "ignore ": 6493,
      "people to ": 6494,
      "train": 6495,
      "either": 6496,
      "specific": 6497,
      "deli": 6498,
      "interesting ": 6499,
      "has no ": 6500,
      "d and ": 6501,
      "finish": 6502,
      "achi": 6503,
      "IS ": 6504,
      "acking ": 6505,
      "d to ": 6506,
      "lies ": 6507,
      "performan": 6508,
      "obje": 6509,
      "went to ": 6510,
      ":\n": 6511,
      "they were ": 6512,
      ", which ": 6513,
      "not, ": 6514,
      "service ": 6515,
      "ing\n": 6516,
      "when the ": 6517,
      "gold ": 6518,
      "instead": 6519,
      "ooking for ": 6520,
      "\"Had ": 6521,
      "a great ": 6522,
      "assho": 6523,
      "special ": 6524,
      "m and ": 6525,
      "efore ": 6526,
      "Chin": 6527,
      "fing": 6528,
      "inside ": 6529,
      "environ": 6530,
      "addi": 6531,
      "kept ": 6532,
      "wrote ": 6533,
      ". I've ": 6534,
      "In ": 6535,
      "EE": 6536,
      "mur": 6537,
      "offen": 6538,
      "thread ": 6539,
      " PS": 6540,
      "sad": 6541,
      "sick ": 6542,
      "War": 6543,
      "threaten": 6544,
      "comments ": 6545,
      "gin ": 6546,
      ".  It ": 6547,
      "position ": 6548,
      "releas": 6549,
      "make the ": 6550,
      "different": 6551,
      "ctive": 6552,
      "link ": 6553,
      "short": 6554,
      "learned ": 6555,
      "titu": 6556,
      "streng": 6557,
      "mmer ": 6558,
      "soli": 6559,
      "support": 6560,
      "much more ": 6561,
      "info ": 6562,
      "fish": 6563,
      "flir": 6564,
      "or is ": 6565,
      "ID": 6566,
      "relat": 6567,
      "vel ": 6568,
      "prove ": 6569,
      "take a ": 6570,
      "arti": 6571,
      "but not ": 6572,
      ": I ": 6573,
      "s. A": 6574,
      "thread": 6575,
      "or not ": 6576,
      "take the ": 6577,
      "Gu": 6578,
      "cheating ": 6579,
      "sive": 6580,
      "get over ": 6581,
      "actions ": 6582,
      "because you ": 6583,
      "gas": 6584,
      "including ": 6585,
      "program": 6586,
      ". How": 6587,
      "hosp": 6588,
      "histor": 6589,
      "cros": 6590,
      "sid": 6591,
      "luck ": 6592,
      "high school ": 6593,
      "match ": 6594,
      "wanna ": 6595,
      "care about ": 6596,
      "Go": 6597,
      "abusive ": 6598,
      "angry ": 6599,
      "unity ": 6600,
      "depression ": 6601,
      "more, ": 6602,
      "\"Re": 6603,
      "day and ": 6604,
      "figu": 6605,
      "later": 6606,
      "I don't think ": 6607,
      ". Help": 6608,
      "ed it ": 6609,
      "listen": 6610,
      "TI": 6611,
      ", what ": 6612,
      "kinda ": 6613,
      "smoking ": 6614,
      "is more ": 6615,
      "movie ": 6616,
      "that I'm ": 6617,
      "\"I have ": 6618,
      "data ": 6619,
      "build": 6620,
      "shoo": 6621,
      "ky": 6622,
      "access ": 6623,
      "up.\n": 6624,
      ", but not ": 6625,
      "aware ": 6626,
      "nar": 6627,
      " I'm ": 6628,
      "factor": 6629,
      "dated ": 6630,
      "activ": 6631,
      "continue ": 6632,
      "when he ": 6633,
      "expres": 6634,
      "heart ": 6635,
      "bre": 6636,
      "th, ": 6637,
      "frustr": 6638,
      "dies ": 6639,
      "it, and ": 6640,
      "70": 6641,
      "confus": 6642,
      "that my ": 6643,
      "brain ": 6644,
      "a guy ": 6645,
      "an in": 6646,
      "women": 6647,
      "ly and ": 6648,
      "enter": 6649,
      "road ": 6650,
      "instead ": 6651,
      "carry ": 6652,
      "ond ": 6653,
      "v ": 6654,
      "lif": 6655,
      "where": 6656,
      "al and ": 6657,
      "HA": 6658,
      "life, ": 6659,
      "engine": 6660,
      ".. ": 6661,
      "ridic": 6662,
      "file ": 6663,
      "to me ": 6664,
      "yes, ": 6665,
      "H ": 6666,
      ".  W": 6667,
      "god": 6668,
      "I really ": 6669,
      "after a ": 6670,
      ". I want to ": 6671,
      "sity ": 6672,
      "American ": 6673,
      "I have a ": 6674,
      "ear ": 6675,
      "contri": 6676,
      "changes ": 6677,
      "of you ": 6678,
      "on her ": 6679,
      "eel ": 6680,
      "ts are ": 6681,
      "on his ": 6682,
      "e. ": 6683,
      "realis": 6684,
      "organiz": 6685,
      "push ": 6686,
      "cards ": 6687,
      "batt": 6688,
      "weir": 6689,
      "sign ": 6690,
      "\"When ": 6691,
      "member": 6692,
      "ext": 6693,
      "land ": 6694,
      "I like ": 6695,
      "update ": 6696,
      "one.\n": 6697,
      "conversation ": 6698,
      "UCK": 6699,
      "ester": 6700,
      "rate ": 6701,
      ". I have ": 6702,
      "scor": 6703,
      "tion.\n": 6704,
      "lay ": 6705,
      "devic": 6706,
      "noo": 6707,
      "ring ": 6708,
      "ation of ": 6709,
      "customer ": 6710,
      "previous ": 6711,
      "rank ": 6712,
      "MM": 6713,
      "active ": 6714,
      "although ": 6715,
      "ital": 6716,
      "killed ": 6717,
      "pass ": 6718,
      "for the first ": 6719,
      "or just ": 6720,
      "apparently ": 6721,
      "gla": 6722,
      ", he ": 6723,
      " UPDAT": 6724,
      "fucked up ": 6725,
      "milit": 6726,
      "ability to ": 6727,
      "\"I want to ": 6728,
      "it?\"\n": 6729,
      "stal": 6730,
      "favorite ": 6731,
      "\"Just ": 6732,
      "as to ": 6733,
      "shot": 6734,
      "us to ": 6735,
      "need to be ": 6736,
      "ug": 6737,
      "seriously ": 6738,
      "teen": 6739,
      "fighting ": 6740,
      "war ": 6741,
      "up a ": 6742,
      "market ": 6743,
      "if we ": 6744,
      "bil": 6745,
      "s!\"\n": 6746,
      "materi": 6747,
      "subreddit ": 6748,
      ".)\"\n": 6749,
      "24": 6750,
      "ussi": 6751,
      ". I just ": 6752,
      "after the ": 6753,
      "draw": 6754,
      "ness": 6755,
      "science ": 6756,
      "? Or ": 6757,
      "today": 6758,
      "good, ": 6759,
      "aggres": 6760,
      "for some ": 6761,
      "pursu": 6762,
      "in S": 6763,
      "alcoho": 6764,
      "driving ": 6765,
      "that.\"\n": 6766,
      "necessarily ": 6767,
      "wear ": 6768,
      "earn ": 6769,
      "depressed ": 6770,
      "enemy ": 6771,
      "employe": 6772,
      "expec": 6773,
      "cru": 6774,
      "p, ": 6775,
      "tter": 6776,
      "okay ": 6777,
      "on me ": 6778,
      "they can ": 6779,
      "ation, ": 6780,
      "dude ": 6781,
      "I don't know ": 6782,
      "before you ": 6783,
      "’m ": 6784,
      "ed at ": 6785,
      "children ": 6786,
      "PS ": 6787,
      "milli": 6788,
      "gest ": 6789,
      "s. H": 6790,
      "I have no ": 6791,
      "otherwise ": 6792,
      "RA": 6793,
      "don't have ": 6794,
      "us, ": 6795,
      "involved ": 6796,
      "hell": 6797,
      "RO": 6798,
      "symp": 6799,
      "choice ": 6800,
      "harder ": 6801,
      "the way ": 6802,
      "medical ": 6803,
      ". Need ": 6804,
      "fle": 6805,
      "missing ": 6806,
      "ab ": 6807,
      "mod": 6808,
      "other people ": 6809,
      ". What do I ": 6810,
      "LY ": 6811,
      "ing in ": 6812,
      "drink ": 6813,
      "today ": 6814,
      "slow ": 6815,
      "ks, ": 6816,
      "waste ": 6817,
      "offici": 6818,
      "s)": 6819,
      "pack": 6820,
      "god ": 6821,
      "ely, ": 6822,
      "confused ": 6823,
      "ridicul": 6824,
      "body": 6825,
      ":D": 6826,
      "er is ": 6827,
      "tern": 6828,
      "find out ": 6829,
      ". Thanks ": 6830,
      "zer": 6831,
      "weigh": 6832,
      "Je": 6833,
      "e, but ": 6834,
      "offic": 6835,
      "suggest ": 6836,
      "idiot": 6837,
      "ches ": 6838,
      ". Am I ": 6839,
      "incredibly ": 6840,
      "wont ": 6841,
      "prin": 6842,
      "during the ": 6843,
      "I do ": 6844,
      "3.": 6845,
      "VE ": 6846,
      "! I ": 6847,
      "lon": 6848,
      "anyone else ": 6849,
      "tives ": 6850,
      "er than ": 6851,
      "missed ": 6852,
      "dia": 6853,
      "best friend": 6854,
      "as well as ": 6855,
      "to keep ": 6856,
      "may have ": 6857,
      "App": 6858,
      "cowor": 6859,
      "lock": 6860,
      "base ": 6861,
      "er's ": 6862,
      "tox": 6863,
      "core ": 6864,
      "friendship ": 6865,
      "abili": 6866,
      "if you are ": 6867,
      "card": 6868,
      "number of ": 6869,
      "SS": 6870,
      "is very ": 6871,
      "kicked ": 6872,
      "agree ": 6873,
      "de, ": 6874,
      "lol": 6875,
      "blame ": 6876,
      "marriage ": 6877,
      "s. W": 6878,
      "of us ": 6879,
      "wanting to ": 6880,
      "1/": 6881,
      "trying ": 6882,
      "cc": 6883,
      "practice ": 6884,
      "down the ": 6885,
      "an un": 6886,
      "again.\"\n": 6887,
      "waiting ": 6888,
      "ary": 6889,
      "effect ": 6890,
      "prevent ": 6891,
      "massive ": 6892,
      "cous": 6893,
      "Ti": 6894,
      "\"Yes, ": 6895,
      "this.\"\n": 6896,
      "nly ": 6897,
      "around": 6898,
      "ed by the ": 6899,
      "less than ": 6900,
      "un ": 6901,
      "number": 6902,
      "fan ": 6903,
      "road": 6904,
      "acted ": 6905,
      "asshol": 6906,
      "Bi": 6907,
      "such a ": 6908,
      "... \n": 6909,
      "divor": 6910,
      "of his ": 6911,
      "agnos": 6912,
      "slightly ": 6913,
      "in her ": 6914,
      "me. \n": 6915,
      "a lar": 6916,
      "one's ": 6917,
      "for her ": 6918,
      "\"In": 6919,
      "summar": 6920,
      "itself ": 6921,
      "what happen": 6922,
      "certain": 6923,
      "for any ": 6924,
      "comes to ": 6925,
      "some of the ": 6926,
      "screen ": 6927,
      "essenti": 6928,
      "out of my ": 6929,
      "and have ": 6930,
      "tell her ": 6931,
      "cting ": 6932,
      "ah": 6933,
      "time.\n": 6934,
      "hood ": 6935,
      "nes": 6936,
      "lock ": 6937,
      "shit, ": 6938,
      "title ": 6939,
      "realized ": 6940,
      "softw": 6941,
      "bey": 6942,
      "ast": 6943,
      "yell": 6944,
      "shut ": 6945,
      "size ": 6946,
      "goal": 6947,
      ".com": 6948,
      "other than ": 6949,
      "awkward ": 6950,
      "make me ": 6951,
      "part of the ": 6952,
      "shes ": 6953,
      "ctions ": 6954,
      "fast": 6955,
      "video": 6956,
      "vely ": 6957,
      "I need to ": 6958,
      "bother": 6959,
      "them.\n": 6960,
      "dly ": 6961,
      "four ": 6962,
      "insan": 6963,
      "yes ": 6964,
      "succ": 6965,
      "??": 6966,
      "it a ": 6967,
      "wo": 6968,
      "easy to ": 6969,
      "Dis": 6970,
      "type of ": 6971,
      "with him ": 6972,
      "trade ": 6973,
      "ent to ": 6974,
      "? W": 6975,
      "make you ": 6976,
      "letting ": 6977,
      "in that ": 6978,
      "aspe": 6979,
      "ers and ": 6980,
      "sele": 6981,
      "you'd ": 6982,
      "advice on how to ": 6983,
      "rit": 6984,
      "When ": 6985,
      "mast": 6986,
      "agree with ": 6987,
      "doctor ": 6988,
      "tool": 6989,
      "all my ": 6990,
      "uti": 6991,
      "hair ": 6992,
      "look at ": 6993,
      "considering ": 6994,
      "fal": 6995,
      "at the same ": 6996,
      "relationship, ": 6997,
      "years of ": 6998,
      "rout": 6999,
      "response ": 7000,
      "the \"\"": 7001,
      "watching ": 7002,
      " Th": 7003,
      "of an ": 7004,
      "with him": 7005,
      "Ju": 7006,
      "hat": 7007,
      "understanding ": 7008,
      "Jap": 7009,
      ". Be": 7010,
      "and she ": 7011,
      "I don't want to ": 7012,
      " Up": 7013,
      "effici": 7014,
      "discussion ": 7015,
      "shed ": 7016,
      "pull ": 7017,
      "frequ": 7018,
      "shor": 7019,
      "starting to ": 7020,
      "town ": 7021,
      "uck": 7022,
      "item ": 7023,
      "vac": 7024,
      "that this ": 7025,
      "danger": 7026,
      "shows ": 7027,
      " Any ": 7028,
      "wife": 7029,
      "ke up ": 7030,
      "on.\n": 7031,
      "\"Not ": 7032,
      "ing out ": 7033,
      "looking for a ": 7034,
      "ent and ": 7035,
      "you and ": 7036,
      "but it ": 7037,
      "fish ": 7038,
      "17": 7039,
      "music": 7040,
      "n't": 7041,
      "argument": 7042,
      "busin": 7043,
      "of them ": 7044,
      "Christ": 7045,
      "there is no ": 7046,
      "sou": 7047,
      "lady ": 7048,
      "epis": 7049,
      "useful ": 7050,
      "regular ": 7051,
      ", but I'm ": 7052,
      "rou": 7053,
      "code ": 7054,
      "learn": 7055,
      "lou": 7056,
      "focus on ": 7057,
      "promis": 7058,
      "? Is ": 7059,
      "quick ": 7060,
      "plays ": 7061,
      "past": 7062,
      "stories ": 7063,
      "ber ": 7064,
      "onlin": 7065,
      "bag": 7066,
      "you think ": 7067,
      "becomes ": 7068,
      "\"Girl ": 7069,
      "of our ": 7070,
      "vil": 7071,
      "Go ": 7072,
      "regardless ": 7073,
      "article ": 7074,
      "in the same ": 7075,
      "give a ": 7076,
      "deserve ": 7077,
      "wards ": 7078,
      "will not ": 7079,
      "you can't ": 7080,
      "I need ": 7081,
      ". Not sure ": 7082,
      "again, ": 7083,
      "TS": 7084,
      "\"Met ": 7085,
      "Star": 7086,
      "spending ": 7087,
      "beauti": 7088,
      "role ": 7089,
      "thes": 7090,
      "rest of ": 7091,
      "return ": 7092,
      ".  If ": 7093,
      "refus": 7094,
      "Gra": 7095,
      "MA": 7096,
      "camer": 7097,
      "notic": 7098,
      "computer": 7099,
      "haps ": 7100,
      "ble, ": 7101,
      "sca": 7102,
      "Val": 7103,
      ",000 ": 7104,
      "option ": 7105,
      "moment": 7106,
      "ike ": 7107,
      "created ": 7108,
      "it\n": 7109,
      "he has ": 7110,
      "med": 7111,
      "we've ": 7112,
      "cost": 7113,
      "ro ": 7114,
      "ax": 7115,
      "grammar": 7116,
      "60 ": 7117,
      "consci": 7118,
      ". What should I ": 7119,
      "ED": 7120,
      "? How ": 7121,
      "hich ": 7122,
      "treat ": 7123,
      "speed ": 7124,
      "give you ": 7125,
      "urb": 7126,
      "s it ": 7127,
      "rob": 7128,
      "ved": 7129,
      "wher": 7130,
      "dump": 7131,
      "techno": 7132,
      "talk about ": 7133,
      "popular ": 7134,
      "Fa": 7135,
      "attention ": 7136,
      "cip": 7137,
      "s \n": 7138,
      "ous and ": 7139,
      "ial ": 7140,
      "email ": 7141,
      "tiz": 7142,
      "speak ": 7143,
      "ing your ": 7144,
      "affect ": 7145,
      "N ": 7146,
      "lun": 7147,
      "a better ": 7148,
      "here, ": 7149,
      "family": 7150,
      "attack": 7151,
      "anti-": 7152,
      ", and it ": 7153,
      "woman": 7154,
      "stry ": 7155,
      "enjoy": 7156,
      "weed ": 7157,
      "nobody ": 7158,
      "effective ": 7159,
      "jump": 7160,
      "blin": 7161,
      "fact that ": 7162,
      "if this ": 7163,
      "reach ": 7164,
      "Nor": 7165,
      "assume ": 7166,
      "area ": 7167,
      "the whole ": 7168,
      "design ": 7169,
      "As": 7170,
      "oo ": 7171,
      "sad ": 7172,
      "my mom ": 7173,
      "talking about ": 7174,
      "Ga": 7175,
      "izz": 7176,
      "ride ": 7177,
      "father": 7178,
      "e is ": 7179,
      "gear ": 7180,
      "a re": 7181,
      "inj": 7182,
      "subreddit": 7183,
      "ance, ": 7184,
      "to play ": 7185,
      "posted ": 7186,
      "roman": 7187,
      "convinc": 7188,
      "wall": 7189,
      "mission": 7190,
      "sub ": 7191,
      "dir": 7192,
      "influ": 7193,
      "added ": 7194,
      "concep": 7195,
      "that has ": 7196,
      "shit.\n": 7197,
      "kno": 7198,
      "2-": 7199,
      "fact": 7200,
      "satis": 7201,
      "fortun": 7202,
      "helps ": 7203,
      "psycho": 7204,
      "skin": 7205,
      "when we ": 7206,
      "obviously ": 7207,
      "screen": 7208,
      "e/": 7209,
      "native ": 7210,
      "hopefully ": 7211,
      "political ": 7212,
      "enly ": 7213,
      "cation": 7214,
      "ment and ": 7215,
      "twice ": 7216,
      "Girlfriend ": 7217,
      "it, but ": 7218,
      "friends and ": 7219,
      "eth": 7220,
      "overall ": 7221,
      "Face": 7222,
      "options ": 7223,
      "written ": 7224,
      "drinking ": 7225,
      ". U": 7226,
      "now, ": 7227,
      "logical ": 7228,
      ":)\n": 7229,
      "weight": 7230,
      ". How can I ": 7231,
      "life.\"\n": 7232,
      "religion ": 7233,
      "technic": 7234,
      "confir": 7235,
      "anxiety ": 7236,
      ". Then ": 7237,
      "commit": 7238,
      "corpor": 7239,
      "hates ": 7240,
      "ly.\n": 7241,
      "switch": 7242,
      "vent": 7243,
      "I want ": 7244,
      "college": 7245,
      "es with ": 7246,
      "talked ": 7247,
      "place to ": 7248,
      "oper": 7249,
      "femin": 7250,
      ". I don't know ": 7251,
      "would like to ": 7252,
      "out there ": 7253,
      "abil": 7254,
      "hob": 7255,
      "range ": 7256,
      "Euro": 7257,
      "help.\"\n": 7258,
      "who's ": 7259,
      "so many ": 7260,
      "Need ": 7261,
      "beyond ": 7262,
      "proper ": 7263,
      "knowledge ": 7264,
      "ous, ": 7265,
      "poor": 7266,
      "this?\"\n": 7267,
      "the next ": 7268,
      "design": 7269,
      "ideas": 7270,
      "pon ": 7271,
      "boy ": 7272,
      "veryone ": 7273,
      "ing is ": 7274,
      "champion": 7275,
      "depression": 7276,
      "lets ": 7277,
      "money, ": 7278,
      "on how to ": 7279,
      "process": 7280,
      "Bro": 7281,
      "insul": 7282,
      "anced ": 7283,
      "mmar ": 7284,
      "report ": 7285,
      "Jes": 7286,
      "ski": 7287,
      "guid": 7288,
      "partner ": 7289,
      "check": 7290,
      "belief": 7291,
      "ind": 7292,
      "right now ": 7293,
      "Lea": 7294,
      "cold ": 7295,
      ". I was ": 7296,
      "language ": 7297,
      ", and I'm ": 7298,
      "he doesn't ": 7299,
      ", got ": 7300,
      "constru": 7301,
      "final ": 7302,
      "circum": 7303,
      "anymore ": 7304,
      "OS": 7305,
      "killing ": 7306,
      "available ": 7307,
      "ing, but ": 7308,
      "OR ": 7309,
      "why": 7310,
      "LD": 7311,
      "there any ": 7312,
      "ppy ": 7313,
      "\"People ": 7314,
      ": S": 7315,
      "half": 7316,
      "thank ": 7317,
      "crush ": 7318,
      "aa": 7319,
      "died ": 7320,
      "acts ": 7321,
      "random": 7322,
      "have no idea ": 7323,
      "ce.\"\n": 7324,
      "improve": 7325,
      "for you": 7326,
      "thus ": 7327,
      "it in ": 7328,
      "if you don't ": 7329,
      "day.\"\n": 7330,
      "apply ": 7331,
      "highly ": 7332,
      "majority ": 7333,
      "se.\n": 7334,
      "present ": 7335,
      "reasonable ": 7336,
      "limit": 7337,
      "TF": 7338,
      "season ": 7339,
      "certainly ": 7340,
      "guar": 7341,
      "seems to be ": 7342,
      "Goo": 7343,
      "then": 7344,
      "stea": 7345,
      "batter": 7346,
      "\"Do ": 7347,
      "of their ": 7348,
      "foot": 7349,
      "nor ": 7350,
      "up on ": 7351,
      "program ": 7352,
      "ano": 7353,
      "even if ": 7354,
      "study ": 7355,
      "clearly ": 7356,
      "enda": 7357,
      "neighbor": 7358,
      "\"No ": 7359,
      "One ": 7360,
      "idn't ": 7361,
      "OT": 7362,
      "ec": 7363,
      "IR": 7364,
      "meas": 7365,
      ". All ": 7366,
      "disappo": 7367,
      "teach ": 7368,
      "her.\"\n": 7369,
      "fault ": 7370,
      "hero": 7371,
      "herself ": 7372,
      "nb": 7373,
      "'ll be ": 7374,
      "stori": 7375,
      "lied ": 7376,
      "ists ": 7377,
      "a \"\"": 7378,
      "see the ": 7379,
      "pre-": 7380,
      "when she ": 7381,
      "crap ": 7382,
      "thinking about ": 7383,
      "however ": 7384,
      "it all ": 7385,
      "Ger": 7386,
      "that can ": 7387,
      ", don't ": 7388,
      "financial ": 7389,
      "counter": 7390,
      "addres": 7391,
      "things to ": 7392,
      "conven": 7393,
      "For ": 7394,
      "rent ": 7395,
      "for being ": 7396,
      "crush": 7397,
      "Does ": 7398,
      "invest": 7399,
      "a p": 7400,
      "becoming ": 7401,
      "bod": 7402,
      "Also ": 7403,
      "tries to ": 7404,
      "co-": 7405,
      "end of the ": 7406,
      "all of the ": 7407,
      "kers ": 7408,
      "coffe": 7409,
      "flu": 7410,
      "ences ": 7411,
      "dge ": 7412,
      "craft ": 7413,
      "AP": 7414,
      "tics ": 7415,
      "ub": 7416,
      ").\n": 7417,
      "y-": 7418,
      "somewhat ": 7419,
      "sensi": 7420,
      "basic ": 7421,
      "marke": 7422,
      "way of ": 7423,
      "99": 7424,
      "spor": 7425,
      "most of the ": 7426,
      "ler ": 7427,
      "es\"\n": 7428,
      "was the ": 7429,
      "potentially ": 7430,
      "ain": 7431,
      "pair ": 7432,
      "attitu": 7433,
      "recogni": 7434,
      "th and ": 7435,
      "out.\n": 7436,
      "link": 7437,
      "into my ": 7438,
      "should have ": 7439,
      "prepar": 7440,
      "Sh": 7441,
      "it is": 7442,
      "there is a ": 7443,
      "rying ": 7444,
      "too much": 7445,
      "is no ": 7446,
      "Make ": 7447,
      "11 ": 7448,
      "s; ": 7449,
      "months, ": 7450,
      "dumb ": 7451,
      "), and ": 7452,
      "gf": 7453,
      "blood ": 7454,
      "years ago": 7455,
      "guy, ": 7456,
      "legi": 7457,
      "but the ": 7458,
      "interested ": 7459,
      "in the first ": 7460,
      "him.\"\n": 7461,
      "easier ": 7462,
      "supposed to ": 7463,
      "bitch ": 7464,
      "aren": 7465,
      "point of ": 7466,
      "explan": 7467,
      "gave me ": 7468,
      "continue to ": 7469,
      "security ": 7470,
      "career ": 7471,
      "too many ": 7472,
      "won't be ": 7473,
      ", we ": 7474,
      "heart": 7475,
      "food": 7476,
      "with a girl ": 7477,
      "within ": 7478,
      "or and ": 7479,
      "do anything ": 7480,
      "I feel like ": 7481,
      "convince ": 7482,
      "Man": 7483,
      "pends ": 7484,
      "entirely ": 7485,
      "1: ": 7486,
      "map ": 7487,
      "intern": 7488,
      "fairly ": 7489,
      "in any ": 7490,
      "ant, ": 7491,
      "directly ": 7492,
      "manage": 7493,
      "liber": 7494,
      "theor": 7495,
      "feel free to ": 7496,
      "second": 7497,
      "s. The ": 7498,
      "important": 7499,
      "baby ": 7500,
      "\"i ": 7501,
      "al.\"\n": 7502,
      ". This is ": 7503,
      "serious": 7504,
      "umb": 7505,
      "So": 7506,
      "occas": 7507,
      "boss ": 7508,
      "Thanks for ": 7509,
      "ing up ": 7510,
      "1-": 7511,
      "mun": 7512,
      "because of the ": 7513,
      "helpful ": 7514,
      "nee": 7515,
      ", but it's ": 7516,
      "how you ": 7517,
      "English ": 7518,
      "sna": 7519,
      "foc": 7520,
      "professional ": 7521,
      ". I know ": 7522,
      "source ": 7523,
      "our relationship ": 7524,
      "needed ": 7525,
      "hurt": 7526,
      "le of ": 7527,
      "when": 7528,
      "alone": 7529,
      "out for ": 7530,
      "using the ": 7531,
      ".  It's ": 7532,
      "built ": 7533,
      "hands ": 7534,
      "damage": 7535,
      "adver": 7536,
      "autom": 7537,
      "most likely ": 7538,
      "private ": 7539,
      "Good ": 7540,
      "promo": 7541,
      "tour": 7542,
      "mas ": 7543,
      "them and ": 7544,
      "experienced ": 7545,
      " edit ": 7546,
      "lob": 7547,
      "insi": 7548,
      "natural ": 7549,
      "paragraph": 7550,
      "HD": 7551,
      "driver": 7552,
      "Che": 7553,
      " My ": 7554,
      ". In": 7555,
      "ey're ": 7556,
      "Boyfriend ": 7557,
      "depends ": 7558,
      "plent": 7559,
      "s. T": 7560,
      ", they ": 7561,
      "ute ": 7562,
      "monit": 7563,
      ". Ad": 7564,
      "Car": 7565,
      "introdu": 7566,
      "teams ": 7567,
      ". Y": 7568,
      "page ": 7569,
      "if you want to ": 7570,
      "ity.\n": 7571,
      " 2": 7572,
      "helped ": 7573,
      "lazy ": 7574,
      "somewhere ": 7575,
      "cis": 7576,
      "not being ": 7577,
      "e?\"\n": 7578,
      "s, or ": 7579,
      "phone": 7580,
      "done": 7581,
      "aff": 7582,
      "els ": 7583,
      "years and ": 7584,
      "fav": 7585,
      "heavy ": 7586,
      "for me to ": 7587,
      "avoid": 7588,
      "account": 7589,
      "daughter ": 7590,
      "art ": 7591,
      "critic": 7592,
      "typic": 7593,
      "eg": 7594,
      "meeting ": 7595,
      "starts ": 7596,
      "born ": 7597,
      "befor": 7598,
      "suffer": 7599,
      "Pv": 7600,
      "you know ": 7601,
      "ing this ": 7602,
      "honest ": 7603,
      "a very ": 7604,
      "deep ": 7605,
      "double ": 7606,
      "laun": 7607,
      "because it's ": 7608,
      "defini": 7609,
      "ry, ": 7610,
      "touch ": 7611,
      "responsible ": 7612,
      "in order to ": 7613,
      "ING ": 7614,
      "out on ": 7615,
      "married ": 7616,
      "ye": 7617,
      "ation and ": 7618,
      "mess ": 7619,
      "more.\"\n": 7620,
      "\"Friend ": 7621,
      "switch ": 7622,
      "doesnt ": 7623,
      "field ": 7624,
      "unsure ": 7625,
      "to-": 7626,
      "third ": 7627,
      ". I feel ": 7628,
      "way.\n": 7629,
      "\"You're ": 7630,
      "PU": 7631,
      "lit ": 7632,
      "in advance": 7633,
      "apologiz": 7634,
      "dow ": 7635,
      "jour": 7636,
      "someone else ": 7637,
      " UPDATE": 7638,
      "ate the ": 7639,
      "claim ": 7640,
      "polic": 7641,
      "before I ": 7642,
      "bring": 7643,
      "arch": 7644,
      "ctu": 7645,
      "es.  ": 7646,
      "that doesn't ": 7647,
      "insurance ": 7648,
      "1) ": 7649,
      "gle": 7650,
      "for a few ": 7651,
      "volu": 7652,
      "treated ": 7653,
      "and we ": 7654,
      "balance ": 7655,
      "ED ": 7656,
      "and he ": 7657,
      "appropriate ": 7658,
      "3-": 7659,
      "after I ": 7660,
      "ware ": 7661,
      "an't ": 7662,
      "roommat": 7663,
      "40 ": 7664,
      "ia ": 7665,
      "of her ": 7666,
      "I'm just ": 7667,
      "Per": 7668,
      "could have ": 7669,
      "it.  ": 7670,
      "numbers ": 7671,
      "to your ": 7672,
      "happened ": 7673,
      "needed to ": 7674,
      "don’t ": 7675,
      "buy a ": 7676,
      "opportunity ": 7677,
      "blow": 7678,
      "forget ": 7679,
      "repor": 7680,
      "think about ": 7681,
      "nbsp": 7682,
      "it doesn't ": 7683,
      "turning ": 7684,
      "jump ": 7685,
      "impossible ": 7686,
      "raz": 7687,
      "hypo": 7688,
      "feelings for ": 7689,
      "Inter": 7690,
      "so I can ": 7691,
      "is a good ": 7692,
      "atta": 7693,
      "tax ": 7694,
      "dollar": 7695,
      " \"\"": 7696,
      "pose ": 7697,
      "yeah": 7698,
      "life.\n": 7699,
      ", and then ": 7700,
      "tici": 7701,
      "crimin": 7702,
      "Da": 7703,
      "stin": 7704,
      "ource": 7705,
      "now.\"\n": 7706,
      "and I am ": 7707,
      "wedding ": 7708,
      "I'll be ": 7709,
      "nbsp;": 7710,
      "bother ": 7711,
      "she doesn't ": 7712,
      "ative ": 7713,
      "take it ": 7714,
      "friendship": 7715,
      "Be ": 7716,
      "fell": 7717,
      "n’t ": 7718,
      "cast ": 7719,
      "tation ": 7720,
      "there a ": 7721,
      "kick ": 7722,
      "charge ": 7723,
      "expl": 7724,
      "of what ": 7725,
      "ling": 7726,
      "ife ": 7727,
      "above": 7728,
      "individual ": 7729,
      "may not ": 7730,
      "500 ": 7731,
      "modern ": 7732,
      "s from ": 7733,
      "standard ": 7734,
      "ranked ": 7735,
      "game.\"\n": 7736,
      ". Got ": 7737,
      "to say ": 7738,
      "personally ": 7739,
      "IG": 7740,
      "listen to ": 7741,
      "related ": 7742,
      "shop ": 7743,
      "ration": 7744,
      "scienti": 7745,
      "EDIT": 7746,
      "so much": 7747,
      "product ": 7748,
      "are some ": 7749,
      "fake ": 7750,
      "door": 7751,
      "books ": 7752,
      ". That's ": 7753,
      "holding ": 7754,
      "stole ": 7755,
      "lation": 7756,
      "fine": 7757,
      "things that ": 7758,
      "of being ": 7759,
      "non ": 7760,
      "come": 7761,
      "don't think ": 7762,
      "steal": 7763,
      "itself": 7764,
      "greatly ": 7765,
      "ME": 7766,
      "encoura": 7767,
      "setting ": 7768,
      "work and ": 7769,
      "around the ": 7770,
      ", I am ": 7771,
      "race ": 7772,
      "I'm going to ": 7773,
      "23": 7774,
      "threw ": 7775,
      "k.\n": 7776,
      "discussion": 7777,
      "worry about ": 7778,
      "aving ": 7779,
      "CH": 7780,
      "remove ": 7781,
      "it would be ": 7782,
      "see a ": 7783,
      "the one ": 7784,
      "suddenly ": 7785,
      "paper ": 7786,
      "it would ": 7787,
      "on their ": 7788,
      "do i ": 7789,
      "as they ": 7790,
      "with some ": 7791,
      "finish ": 7792,
      "popu": 7793,
      "elect": 7794,
      "parts ": 7795,
      "causes ": 7796,
      "chat ": 7797,
      "physically ": 7798,
      "**": 7799,
      "impres": 7800,
      "domin": 7801,
      "ruin": 7802,
      "public": 7803,
      "ower ": 7804,
      "let": 7805,
      "Ge": 7806,
      "ted to ": 7807,
      "ometimes ": 7808,
      "\"Get ": 7809,
      "each": 7810,
      "AY": 7811,
      "she has ": 7812,
      "you're not ": 7813,
      "pha": 7814,
      "syn": 7815,
      "mid ": 7816,
      "track ": 7817,
      "to do with ": 7818,
      "plu": 7819,
      "necessary ": 7820,
      " Also ": 7821,
      "note ": 7822,
      "needs to be ": 7823,
      "going on ": 7824,
      "radi": 7825,
      ", and now ": 7826,
      "replac": 7827,
      "group of ": 7828,
      "fit": 7829,
      "lement": 7830,
      "quali": 7831,
      "having to ": 7832,
      "adul": 7833,
      "afford ": 7834,
      "FF": 7835,
      "count ": 7836,
      "\"V": 7837,
      "wall of ": 7838,
      "mobi": 7839,
      "roll ": 7840,
      "\"Your ": 7841,
      "occasion": 7842,
      " This ": 7843,
      "Read ": 7844,
      "og": 7845,
      "demo": 7846,
      "&nbsp;": 7847,
      "weren't ": 7848,
      "conclus": 7849,
      "fai": 7850,
      "s in the ": 7851,
      "rar": 7852,
      "a bunch of ": 7853,
      "tells me ": 7854,
      "sit ": 7855,
      "fill ": 7856,
      "shir": 7857,
      "morning ": 7858,
      "pressure ": 7859,
      "embarr": 7860,
      "You can ": 7861,
      "require ": 7862,
      "ate, ": 7863,
      "predic": 7864,
      "Sa": 7865,
      "one of my ": 7866,
      "punish": 7867,
      "staying ": 7868,
      "mentally ": 7869,
      "(which ": 7870,
      "logy ": 7871,
      "rin": 7872,
      "regret ": 7873,
      "difficult ": 7874,
      "so that ": 7875,
      "5-": 7876,
      "alread": 7877,
      "exclus": 7878,
      "wait": 7879,
      "y, but ": 7880,
      "is too ": 7881,
      "because I'm ": 7882,
      "deep": 7883,
      "che ": 7884,
      "there, ": 7885,
      "told her ": 7886,
      "hair": 7887,
      "Christian": 7888,
      "makes you ": 7889,
      "degree ": 7890,
      "install": 7891,
      "recent ": 7892,
      "rest of the ": 7893,
      "ingle ": 7894,
      "i was ": 7895,
      "training ": 7896,
      "az": 7897,
      "raise ": 7898,
      "makes it ": 7899,
      "moun": 7900,
      "\"Fuck ": 7901,
      "ding": 7902,
      "include ": 7903,
      "barely ": 7904,
      "rant": 7905,
      "student": 7906,
      "van": 7907,
      "and get ": 7908,
      "ned": 7909,
      "the sa": 7910,
      "mode ": 7911,
      "hic": 7912,
      "bullshit ": 7913,
      "or to ": 7914,
      "s, I ": 7915,
      "piece of ": 7916,
      "in some ": 7917,
      "it up ": 7918,
      "it off ": 7919,
      "UN": 7920,
      "ue ": 7921,
      "energy ": 7922,
      "position": 7923,
      "breaks ": 7924,
      "upgra": 7925,
      "mission ": 7926,
      "moment ": 7927,
      "bath": 7928,
      "websit": 7929,
      "something that ": 7930,
      "skin ": 7931,
      "ing that ": 7932,
      "life and ": 7933,
      "issues": 7934,
      "email": 7935,
      "ing to the ": 7936,
      " and I ": 7937,
      "use to ": 7938,
      "grammar ": 7939,
      "consequ": 7940,
      "protect ": 7941,
      "tract ": 7942,
      "competitive ": 7943,
      "relationship with ": 7944,
      "ok ": 7945,
      "making me ": 7946,
      "terms of ": 7947,
      "my dad ": 7948,
      "ney ": 7949,
      "proof ": 7950,
      "honestly ": 7951,
      "gold": 7952,
      "who are ": 7953,
      "ire": 7954,
      "practic": 7955,
      "ctr": 7956,
      "somehow ": 7957,
      "ton of ": 7958,
      "Now ": 7959,
      "effect": 7960,
      "ving": 7961,
      "attract": 7962,
      "ing on ": 7963,
      "if your ": 7964,
      "and I don't know ": 7965,
      "EC": 7966,
      "friendly ": 7967,
      "limited ": 7968,
      "Edit: ": 7969,
      "Col": 7970,
      "ers to ": 7971,
      "\"I've ": 7972,
      "they don't ": 7973,
      "such as ": 7974,
      "solid ": 7975,
      "ats ": 7976,
      "arri": 7977,
      ". Can ": 7978,
      "k.\"\n": 7979,
      "ality": 7980,
      "guy who ": 7981,
      "upon ": 7982,
      "it?\n": 7983,
      "gear": 7984,
      "app ": 7985,
      "daily ": 7986,
      "exist ": 7987,
      "how can I ": 7988,
      "media ": 7989,
      "exercis": 7990,
      "is my ": 7991,
      "ances ": 7992,
      "in the future": 7993,
      "like an ": 7994,
      "companies ": 7995,
      "years. ": 7996,
      "dian ": 7997,
      "pay for ": 7998,
      "a large ": 7999
    },
    "merges": [
      [
        "e",
        " "
      ],
      [
        "t",
        " "
      ],
      [
        "s",
        " "
      ],
      [
        "t",
        "h"
      ],
      [
        "i",
        "n"
      ],
      [
        "d",
        " "
      ],
      [
        "a",
        "n"
      ],
      [
        "e",
        "r"
      ],
      [
        "y",
        " "
      ],
      [
        "o",
        "n"
      ],
      [
        "o",
        " "
      ],
      [
        "o",
        "u"
      ],
      [
        "o",
        "r"
      ],
      [
        "in",
        "g"
      ],
      [
        ",",
        " "
      ],
      [
        "e",
        "n"
      ],
      [
        "t",
        "o "
      ],
      [
        "ing",
        " "
      ],
      [
        ".",
        " "
      ],
      [
        "a",
        "r"
      ],
      [
        "a",
        "l"
      ],
      [
        "r",
        "e"
      ],
      [
        "a",
        " "
      ],
      [
        "th",
        "e "
      ],
      [
        "an",
        "d "
      ],
      [
        "f",
        " "
      ],
      [
        "t",
        "i"
      ],
      [
        "I",
        " "
      ],
      [
        "e",
        "d "
      ],
      [
        "er",
        " "
      ],
      [
        "\"",
        "\n"
      ],
      [
        "h",
        "a"
      ],
      [
        "i",
        "s "
      ],
      [
        "s",
        "t"
      ],
      [
        "o",
        "m"
      ],
      [
        "l",
        " "
      ],
      [
        "i",
        "t"
      ],
      [
        "or",
        " "
      ],
      [
        "y",
        "ou"
      ],
      [
        "e",
        "s"
      ],
      [
        "o",
        "f "
      ],
      [
        "o",
        "w"
      ],
      [
        "e",
        "l"
      ],
      [
        "a",
        "t"
      ],
      [
        "in",
        " "
      ],
      [
        "on",
        " "
      ],
      [
        "v",
        "e "
      ],
      [
        "a",
        "t "
      ],
      [
        "c",
        "h"
      ],
      [
        "w",
        "i"
      ],
      [
        ".",
        "\"\n"
      ],
      [
        "u",
        "s"
      ],
      [
        "s",
        "h"
      ],
      [
        "l",
        "y "
      ],
      [
        "r",
        "i"
      ],
      [
        "m",
        " "
      ],
      [
        "k",
        " "
      ],
      [
        "e",
        "s "
      ],
      [
        "l",
        "i"
      ],
      [
        "i",
        "t "
      ],
      [
        "l",
        "e"
      ],
      [
        "a",
        "c"
      ],
      [
        "an",
        " "
      ],
      [
        "f",
        "or "
      ],
      [
        ".",
        "\n"
      ],
      [
        "th",
        " "
      ],
      [
        "b",
        "e"
      ],
      [
        "a",
        "s"
      ],
      [
        "'",
        "t "
      ],
      [
        "o",
        "t "
      ],
      [
        "m",
        "e "
      ],
      [
        "en",
        " "
      ],
      [
        "you",
        " "
      ],
      [
        "l",
        "e "
      ],
      [
        "m",
        "y "
      ],
      [
        "r",
        "o"
      ],
      [
        "i",
        "c"
      ],
      [
        "p",
        " "
      ],
      [
        "a",
        "s "
      ],
      [
        "w",
        "h"
      ],
      [
        "b",
        "u"
      ],
      [
        "g",
        "h"
      ],
      [
        "a",
        "b"
      ],
      [
        "wi",
        "th "
      ],
      [
        "th",
        "at "
      ],
      [
        "ow",
        " "
      ],
      [
        "o",
        "o"
      ],
      [
        "m",
        "a"
      ],
      [
        "r",
        " "
      ],
      [
        "i",
        "s"
      ],
      [
        "ou",
        "t "
      ],
      [
        "l",
        "d "
      ],
      [
        "k",
        "e "
      ],
      [
        "u",
        "n"
      ],
      [
        "s",
        "e"
      ],
      [
        "th",
        "e"
      ],
      [
        "'",
        "s "
      ],
      [
        "g",
        "e"
      ],
      [
        "d",
        "e"
      ],
      [
        "s",
        "u"
      ],
      [
        "l",
        "a"
      ],
      [
        "n",
        "e"
      ],
      [
        "b",
        "e "
      ],
      [
        "m",
        "e"
      ],
      [
        "o",
        "p"
      ],
      [
        "s",
        "i"
      ],
      [
        "v",
        "er"
      ],
      [
        "l",
        "l "
      ],
      [
        "al",
        " "
      ],
      [
        "d",
        "i"
      ],
      [
        "ar",
        "e "
      ],
      [
        "r",
        "a"
      ],
      [
        "o",
        "s"
      ],
      [
        "n",
        "ot "
      ],
      [
        "ti",
        "on"
      ],
      [
        "bu",
        "t "
      ],
      [
        "p",
        "e"
      ],
      [
        "ha",
        "ve "
      ],
      [
        "c",
        "om"
      ],
      [
        "i",
        "r"
      ],
      [
        "ou",
        "ld "
      ],
      [
        "a",
        "d"
      ],
      [
        ". ",
        "\n"
      ],
      [
        "f",
        "e"
      ],
      [
        "T",
        "h"
      ],
      [
        "e",
        "d"
      ],
      [
        "I",
        "'"
      ],
      [
        "\"",
        "\""
      ],
      [
        "en",
        "t"
      ],
      [
        "e",
        "x"
      ],
      [
        "c",
        "on"
      ],
      [
        "ch",
        " "
      ],
      [
        "u",
        "r"
      ],
      [
        "c",
        "a"
      ],
      [
        "al",
        "ly "
      ],
      [
        "on",
        "'t "
      ],
      [
        "on",
        "e "
      ],
      [
        "d",
        "o"
      ],
      [
        "s",
        "om"
      ],
      [
        "p",
        "ro"
      ],
      [
        ", ",
        "and "
      ],
      [
        "i",
        "l"
      ],
      [
        " ",
        "\n"
      ],
      [
        "en",
        "t "
      ],
      [
        "s",
        "a"
      ],
      [
        "w",
        "or"
      ],
      [
        "g",
        "a"
      ],
      [
        "ha",
        "t "
      ],
      [
        "ri",
        "en"
      ],
      [
        "l",
        "o"
      ],
      [
        "th",
        "is "
      ],
      [
        "us",
        "t "
      ],
      [
        "k",
        "ing "
      ],
      [
        "f",
        "rien"
      ],
      [
        "you",
        "r "
      ],
      [
        "or",
        "e "
      ],
      [
        "w",
        "a"
      ],
      [
        "w",
        "as "
      ],
      [
        "i",
        "f "
      ],
      [
        "t",
        "t"
      ],
      [
        "om",
        " "
      ],
      [
        "w",
        "an"
      ],
      [
        "er",
        "e "
      ],
      [
        "th",
        "er "
      ],
      [
        "h",
        "i"
      ],
      [
        ":",
        " "
      ],
      [
        "c",
        "e "
      ],
      [
        "d",
        "o "
      ],
      [
        "t",
        "s "
      ],
      [
        "us",
        "e "
      ],
      [
        "t",
        "o"
      ],
      [
        "al",
        "l "
      ],
      [
        "p",
        "p"
      ],
      [
        "n",
        "'t "
      ],
      [
        "t",
        "r"
      ],
      [
        "s",
        ", "
      ],
      [
        "n",
        " "
      ],
      [
        "s",
        "o "
      ],
      [
        "ti",
        "on "
      ],
      [
        "ab",
        "out "
      ],
      [
        "I'",
        "m "
      ],
      [
        "ge",
        "t "
      ],
      [
        "f",
        "r"
      ],
      [
        "m",
        "o"
      ],
      [
        "d",
        "on't "
      ],
      [
        "li",
        "ke "
      ],
      [
        "p",
        "o"
      ],
      [
        "j",
        "ust "
      ],
      [
        ". ",
        " "
      ],
      [
        "e",
        "a"
      ],
      [
        "t",
        "a"
      ],
      [
        "t",
        "er"
      ],
      [
        "c",
        "an "
      ],
      [
        "f",
        "u"
      ],
      [
        "gh",
        "t "
      ],
      [
        "v",
        "er "
      ],
      [
        "n",
        "ow "
      ],
      [
        "p",
        "er"
      ],
      [
        "ou",
        "n"
      ],
      [
        "r",
        "e "
      ],
      [
        "g",
        "u"
      ],
      [
        "g",
        " "
      ],
      [
        "o",
        "l"
      ],
      [
        "u",
        "p "
      ],
      [
        "ed ",
        "to "
      ],
      [
        "i",
        "d"
      ],
      [
        ", ",
        "but "
      ],
      [
        "e",
        "ar"
      ],
      [
        "w",
        "hat "
      ],
      [
        "h",
        "er "
      ],
      [
        "b",
        "o"
      ],
      [
        "fr",
        "om "
      ],
      [
        "f",
        "or"
      ],
      [
        "g",
        "e "
      ],
      [
        "q",
        "u"
      ],
      [
        "d",
        "a"
      ],
      [
        "h",
        "e "
      ],
      [
        "th",
        "ing "
      ],
      [
        "re",
        "s"
      ],
      [
        "ca",
        "use "
      ],
      [
        "m",
        "ore "
      ],
      [
        "g",
        "o"
      ],
      [
        "w",
        " "
      ],
      [
        "m",
        "p"
      ],
      [
        "p",
        "la"
      ],
      [
        "f",
        "f"
      ],
      [
        "the",
        "y "
      ],
      [
        "t ",
        "to "
      ],
      [
        "w",
        "e"
      ],
      [
        "e",
        ", "
      ],
      [
        "p",
        "ar"
      ],
      [
        "c",
        "i"
      ],
      [
        "at",
        "e "
      ],
      [
        "k",
        "s "
      ],
      [
        ". ",
        "I "
      ],
      [
        "wi",
        "ll "
      ],
      [
        "in ",
        "the "
      ],
      [
        "pe",
        "op"
      ],
      [
        "be",
        "cause "
      ],
      [
        "d",
        "s "
      ],
      [
        "al",
        "l"
      ],
      [
        "ing ",
        "to "
      ],
      [
        "h",
        "ow "
      ],
      [
        "som",
        "e"
      ],
      [
        "ou",
        "gh"
      ],
      [
        "re",
        "a"
      ],
      [
        "g",
        "i"
      ],
      [
        " ",
        "E"
      ],
      [
        "e",
        "v"
      ],
      [
        "th",
        "in"
      ],
      [
        "k",
        "e"
      ],
      [
        "y",
        ", "
      ],
      [
        "s",
        "el"
      ],
      [
        "t",
        "er "
      ],
      [
        "an",
        "y "
      ],
      [
        "w",
        "e "
      ],
      [
        "os",
        "t "
      ],
      [
        "e",
        "ver"
      ],
      [
        "f",
        "i"
      ],
      [
        "?",
        "\"\n"
      ],
      [
        "th",
        "er"
      ],
      [
        "sh",
        "e "
      ],
      [
        "c",
        "e"
      ],
      [
        "h",
        "el"
      ],
      [
        "b",
        "y "
      ],
      [
        "of ",
        "the "
      ],
      [
        "frien",
        "d "
      ],
      [
        "m",
        "u"
      ],
      [
        "ha",
        "s "
      ],
      [
        "d",
        "e "
      ],
      [
        "u",
        "p"
      ],
      [
        "k",
        "now "
      ],
      [
        "?",
        " "
      ],
      [
        "oo",
        "d "
      ],
      [
        "v",
        "i"
      ],
      [
        "som",
        "e "
      ],
      [
        "wh",
        "en "
      ],
      [
        "ti",
        "c"
      ],
      [
        "f",
        "in"
      ],
      [
        "ar",
        " "
      ],
      [
        "s",
        ". "
      ],
      [
        "w",
        "ould "
      ],
      [
        "m",
        "on"
      ],
      [
        "peop",
        "le "
      ],
      [
        "o",
        "ther "
      ],
      [
        "e",
        "l "
      ],
      [
        "f",
        "a"
      ],
      [
        "wh",
        "i"
      ],
      [
        "p",
        "l"
      ],
      [
        "s",
        "e "
      ],
      [
        "?",
        "\n"
      ],
      [
        "\"",
        "I "
      ],
      [
        "es",
        "s "
      ],
      [
        "an",
        "y"
      ],
      [
        "m",
        "i"
      ],
      [
        "an",
        "d"
      ],
      [
        "y",
        "s "
      ],
      [
        "th",
        "ing"
      ],
      [
        "n",
        "o"
      ],
      [
        "n",
        "o "
      ],
      [
        "p",
        "a"
      ],
      [
        "d",
        "er"
      ],
      [
        "sh",
        "ould "
      ],
      [
        ")",
        " "
      ],
      [
        "es",
        "t "
      ],
      [
        ".",
        "."
      ],
      [
        "g",
        "ir"
      ],
      [
        "wh",
        "o "
      ],
      [
        "it",
        "'s "
      ],
      [
        "ma",
        "ke "
      ],
      [
        "i",
        "r "
      ],
      [
        "c",
        "k "
      ],
      [
        "t",
        "u"
      ],
      [
        "'",
        "re "
      ],
      [
        "u",
        "l"
      ],
      [
        "Th",
        "e "
      ],
      [
        "t",
        "e"
      ],
      [
        "sh",
        "i"
      ],
      [
        "i",
        "d "
      ],
      [
        "\"\"",
        " "
      ],
      [
        "a",
        "f"
      ],
      [
        "s",
        "o"
      ],
      [
        "ac",
        "k "
      ],
      [
        "s ",
        "and "
      ],
      [
        "el",
        "y "
      ],
      [
        "c",
        "k"
      ],
      [
        "th",
        "an "
      ],
      [
        "h",
        "is "
      ],
      [
        "c",
        "an"
      ],
      [
        "c",
        "l"
      ],
      [
        "y",
        "ear"
      ],
      [
        "wan",
        "t to "
      ],
      [
        "c",
        "t"
      ],
      [
        "s",
        "t "
      ],
      [
        ". ",
        "I"
      ],
      [
        "it",
        "y "
      ],
      [
        "s",
        "p"
      ],
      [
        "s",
        "ti"
      ],
      [
        "h",
        "e"
      ],
      [
        "thin",
        "k "
      ],
      [
        "v",
        "ing "
      ],
      [
        "wa",
        "y "
      ],
      [
        "ough",
        " "
      ],
      [
        "m",
        "ent"
      ],
      [
        "i",
        " "
      ],
      [
        "g",
        "ot "
      ],
      [
        "d",
        "u"
      ],
      [
        "be",
        "ing "
      ],
      [
        "re",
        "ally "
      ],
      [
        "er",
        "s "
      ],
      [
        "p",
        "re"
      ],
      [
        "m",
        "in"
      ],
      [
        "g",
        "re"
      ],
      [
        "a ",
        "l"
      ],
      [
        "ti",
        "me "
      ],
      [
        "p",
        "u"
      ],
      [
        "g",
        "ood "
      ],
      [
        "a",
        "m "
      ],
      [
        "ha",
        "d "
      ],
      [
        "c",
        "o"
      ],
      [
        "ow",
        "n "
      ],
      [
        "ou",
        "r "
      ],
      [
        "a",
        "d "
      ],
      [
        "g",
        "o "
      ],
      [
        "h",
        "er"
      ],
      [
        "a ",
        "b"
      ],
      [
        "hi",
        "m "
      ],
      [
        "0",
        " "
      ],
      [
        "c",
        "ar"
      ],
      [
        "d",
        "it"
      ],
      [
        "y",
        "ing "
      ],
      [
        "x",
        " "
      ],
      [
        "ab",
        "le "
      ],
      [
        "on",
        "g "
      ],
      [
        "the",
        "ir "
      ],
      [
        "t",
        ", "
      ],
      [
        "l",
        "oo"
      ],
      [
        "v",
        "e"
      ],
      [
        ". ",
        "W"
      ],
      [
        "ch",
        "an"
      ],
      [
        "el",
        "l "
      ],
      [
        "M",
        "y "
      ],
      [
        "t",
        "ing "
      ],
      [
        "d",
        "n't "
      ],
      [
        ". ",
        "A"
      ],
      [
        "j",
        "o"
      ],
      [
        "in",
        "to "
      ],
      [
        ". ",
        "S"
      ],
      [
        "the",
        "m "
      ],
      [
        "fe",
        "el "
      ],
      [
        "c",
        "re"
      ],
      [
        "en",
        "d"
      ],
      [
        "pro",
        "b"
      ],
      [
        " ",
        "and "
      ],
      [
        "oun",
        "d "
      ],
      [
        "r",
        "u"
      ],
      [
        "m",
        "b"
      ],
      [
        "as",
        "t "
      ],
      [
        "o",
        "f"
      ],
      [
        "s",
        ".\"\n"
      ],
      [
        "s ",
        "to "
      ],
      [
        "re",
        "la"
      ],
      [
        " ",
        " "
      ],
      [
        "ever",
        "y"
      ],
      [
        "on",
        "ly "
      ],
      [
        "c",
        "u"
      ],
      [
        "el",
        "l"
      ],
      [
        "t",
        "ed "
      ],
      [
        "g",
        "r"
      ],
      [
        "do",
        "es"
      ],
      [
        "mu",
        "ch "
      ],
      [
        "k",
        "ed "
      ],
      [
        "n",
        "ow"
      ],
      [
        "th",
        "ere "
      ],
      [
        "sti",
        "ll "
      ],
      [
        "ev",
        "en "
      ],
      [
        "d",
        "is"
      ],
      [
        ". ",
        "H"
      ],
      [
        "be",
        "en "
      ],
      [
        "p",
        "h"
      ],
      [
        "e ",
        "to "
      ],
      [
        "be",
        "tt"
      ],
      [
        "frien",
        "d"
      ],
      [
        "t",
        "'s "
      ],
      [
        "m",
        "at"
      ],
      [
        "m",
        "ent "
      ],
      [
        "ou",
        "r"
      ],
      [
        "for ",
        "the "
      ],
      [
        "I",
        "T"
      ],
      [
        "st",
        "ar"
      ],
      [
        "in",
        "ter"
      ],
      [
        "con",
        "t"
      ],
      [
        "t",
        "ur"
      ],
      [
        "v",
        "ic"
      ],
      [
        "es",
        ", "
      ],
      [
        "ou",
        "t"
      ],
      [
        "wi",
        "th"
      ],
      [
        " ",
        "A"
      ],
      [
        "Y",
        "ou"
      ],
      [
        "com",
        "p"
      ],
      [
        "in ",
        "a "
      ],
      [
        "t",
        "al"
      ],
      [
        "ha",
        "pp"
      ],
      [
        "s",
        ".\n"
      ],
      [
        "m",
        "ost "
      ],
      [
        "tion",
        "shi"
      ],
      [
        "o",
        "ver "
      ],
      [
        "ver",
        "y "
      ],
      [
        "f",
        "ir"
      ],
      [
        "en",
        "d "
      ],
      [
        "on ",
        "the "
      ],
      [
        "af",
        "ter "
      ],
      [
        "rela",
        "tionshi"
      ],
      [
        "\"",
        "I"
      ],
      [
        "c",
        "t "
      ],
      [
        "does",
        "n't "
      ],
      [
        "tt",
        "ing "
      ],
      [
        "ne",
        "w "
      ],
      [
        "gir",
        "l"
      ],
      [
        "e",
        "t"
      ],
      [
        "m",
        "an"
      ],
      [
        "n",
        "i"
      ],
      [
        "and ",
        "I "
      ],
      [
        "os",
        "e "
      ],
      [
        "m",
        "ar"
      ],
      [
        ", ",
        "I "
      ],
      [
        "b",
        "ack "
      ],
      [
        "es",
        "s"
      ],
      [
        "th",
        "en "
      ],
      [
        "-",
        " "
      ],
      [
        "ic",
        " "
      ],
      [
        "on",
        "e"
      ],
      [
        "ar",
        "d "
      ],
      [
        "e",
        "m"
      ],
      [
        "e",
        "p "
      ],
      [
        "pla",
        "y"
      ],
      [
        "is ",
        "a "
      ],
      [
        "g",
        "ra"
      ],
      [
        "if ",
        "you "
      ],
      [
        "as",
        "e "
      ],
      [
        ". ",
        "Th"
      ],
      [
        "i",
        "g"
      ],
      [
        "t",
        "e "
      ],
      [
        "k",
        "es "
      ],
      [
        "to",
        "o "
      ],
      [
        "f",
        "e "
      ],
      [
        "st",
        "u"
      ],
      [
        "ti",
        "ve "
      ],
      [
        "re",
        "ad"
      ],
      [
        "hel",
        "p "
      ],
      [
        "n",
        "a"
      ],
      [
        "a",
        "ga"
      ],
      [
        "sel",
        "f "
      ],
      [
        "s",
        "er"
      ],
      [
        "st",
        "a"
      ],
      [
        "per",
        "s"
      ],
      [
        "at",
        "ed "
      ],
      [
        "can",
        "'t "
      ],
      [
        "ff",
        "er"
      ],
      [
        "!",
        "\"\n"
      ],
      [
        "d",
        "er "
      ],
      [
        "t",
        "ri"
      ],
      [
        "en",
        "ce "
      ],
      [
        "tion",
        "s "
      ],
      [
        "w",
        "r"
      ],
      [
        "it",
        "t"
      ],
      [
        "l",
        "l"
      ],
      [
        "?",
        " \n"
      ],
      [
        "se",
        "e "
      ],
      [
        "e",
        "t "
      ],
      [
        "a",
        "p"
      ],
      [
        "r",
        "y "
      ],
      [
        "it",
        "e "
      ],
      [
        " ",
        "S"
      ],
      [
        "ac",
        "k"
      ],
      [
        "for ",
        "a "
      ],
      [
        "D",
        "IT"
      ],
      [
        "wor",
        "k "
      ],
      [
        "ga",
        "me "
      ],
      [
        "com",
        "m"
      ],
      [
        "to ",
        "be "
      ],
      [
        "on",
        "g"
      ],
      [
        "whi",
        "ch "
      ],
      [
        "su",
        "re "
      ],
      [
        "2",
        " "
      ],
      [
        "i",
        "m"
      ],
      [
        "b",
        "le "
      ],
      [
        "you",
        "'re "
      ],
      [
        "th",
        "r"
      ],
      [
        "bett",
        "er "
      ],
      [
        " E",
        "dit"
      ],
      [
        "\"",
        "S"
      ],
      [
        "gh",
        "t"
      ],
      [
        "il",
        "l"
      ],
      [
        "c",
        "ould "
      ],
      [
        "it",
        "s "
      ],
      [
        "e",
        "'s "
      ],
      [
        "m",
        "es "
      ],
      [
        "ou",
        "s "
      ],
      [
        "ar",
        "d"
      ],
      [
        "e",
        "st"
      ],
      [
        "l",
        "ess "
      ],
      [
        "of",
        "f "
      ],
      [
        "f",
        "ac"
      ],
      [
        "r",
        "an"
      ],
      [
        "th",
        "at"
      ],
      [
        "a",
        "tion "
      ],
      [
        "s",
        "pe"
      ],
      [
        "t",
        "ea"
      ],
      [
        "the ",
        "b"
      ],
      [
        " E",
        "DIT"
      ],
      [
        "st",
        "or"
      ],
      [
        "u",
        "s "
      ],
      [
        "ta",
        "ke "
      ],
      [
        "e",
        "p"
      ],
      [
        "l",
        "in"
      ],
      [
        "e",
        "y "
      ],
      [
        "e",
        "f"
      ],
      [
        "whi",
        "le "
      ],
      [
        "sh",
        " "
      ],
      [
        "p",
        "ri"
      ],
      [
        "at",
        "ing "
      ],
      [
        "ne",
        "ed "
      ],
      [
        "m",
        "or"
      ],
      [
        "per",
        "i"
      ],
      [
        "g",
        "g"
      ],
      [
        "some",
        "thing "
      ],
      [
        "t",
        "w"
      ],
      [
        "f",
        "un"
      ],
      [
        "\"",
        "W"
      ],
      [
        "lo",
        "ve "
      ],
      [
        "p",
        "os"
      ],
      [
        "a",
        "pp"
      ],
      [
        "wh",
        "ere "
      ],
      [
        "ow",
        "n"
      ],
      [
        "S",
        " "
      ],
      [
        "You",
        " "
      ],
      [
        "t",
        "ra"
      ],
      [
        "i",
        "z"
      ],
      [
        "r",
        "un"
      ],
      [
        "en",
        "ti"
      ],
      [
        "en",
        "c"
      ],
      [
        "ch",
        "e"
      ],
      [
        "]",
        "("
      ],
      [
        "wan",
        "t "
      ],
      [
        "d",
        "ic"
      ],
      [
        "v",
        "es "
      ],
      [
        "ou",
        "l"
      ],
      [
        "fe",
        "el"
      ],
      [
        "d",
        "es"
      ],
      [
        "ch",
        "oo"
      ],
      [
        "thing",
        "s "
      ],
      [
        "i",
        "de"
      ],
      [
        "w",
        "ere "
      ],
      [
        "with ",
        "a "
      ],
      [
        "b",
        "ro"
      ],
      [
        "b",
        "i"
      ],
      [
        "y",
        ".\"\n"
      ],
      [
        "v",
        "o"
      ],
      [
        "t ",
        "of "
      ],
      [
        "di",
        "dn't "
      ],
      [
        " Edit",
        ": "
      ],
      [
        "\"",
        "G"
      ],
      [
        "y ",
        "to "
      ],
      [
        "hi",
        "gh"
      ],
      [
        "d",
        ", "
      ],
      [
        "the",
        "m"
      ],
      [
        "p",
        "res"
      ],
      [
        "in",
        "t"
      ],
      [
        "di",
        "ffer"
      ],
      [
        "hel",
        "p"
      ],
      [
        "ac",
        "c"
      ],
      [
        "fir",
        "st "
      ],
      [
        "ne",
        "ver "
      ],
      [
        "Th",
        "an"
      ],
      [
        "ing",
        ", "
      ],
      [
        "y ",
        "and "
      ],
      [
        "an",
        "t "
      ],
      [
        "with",
        "out "
      ],
      [
        "s ",
        "are "
      ],
      [
        "ma",
        "de "
      ],
      [
        "to ",
        "the "
      ],
      [
        "s",
        "y"
      ],
      [
        "ing ",
        "the "
      ],
      [
        "ti",
        "me"
      ],
      [
        "ab",
        "ly "
      ],
      [
        "ge",
        "tting "
      ],
      [
        "I'",
        "ve "
      ],
      [
        "f",
        "ore "
      ],
      [
        "A",
        " "
      ],
      [
        "some",
        "one "
      ],
      [
        "be",
        "fore "
      ],
      [
        "0",
        "0"
      ],
      [
        "aga",
        "in"
      ],
      [
        "al",
        "so "
      ],
      [
        "or",
        "t"
      ],
      [
        "gir",
        "l "
      ],
      [
        "gi",
        "ve "
      ],
      [
        "d ",
        "of "
      ],
      [
        " ",
        "I "
      ],
      [
        "c",
        "ra"
      ],
      [
        "ac",
        "tu"
      ],
      [
        "how ",
        "to "
      ],
      [
        "we",
        "e"
      ],
      [
        "o",
        "ld "
      ],
      [
        "e",
        ".\"\n"
      ],
      [
        "E",
        " "
      ],
      [
        "o",
        "ff"
      ],
      [
        "have ",
        "a "
      ],
      [
        "ri",
        "ght "
      ],
      [
        "th",
        "is"
      ],
      [
        "a",
        "w"
      ],
      [
        "b",
        " "
      ],
      [
        "fin",
        "d "
      ],
      [
        "i",
        "mp"
      ],
      [
        "su",
        "pp"
      ],
      [
        "com",
        "e "
      ],
      [
        "el",
        "i"
      ],
      [
        "e",
        "ver "
      ],
      [
        "ad",
        "vic"
      ],
      [
        "f",
        "re"
      ],
      [
        "pl",
        "ac"
      ],
      [
        "hi",
        "m"
      ],
      [
        "go",
        "ing to "
      ],
      [
        "p",
        "ic"
      ],
      [
        "st",
        "r"
      ],
      [
        "wor",
        "k"
      ],
      [
        "le",
        "a"
      ],
      [
        "o",
        "ver"
      ],
      [
        "a",
        "tion"
      ],
      [
        "ou",
        "ght "
      ],
      [
        "D",
        "on't "
      ],
      [
        "v",
        "ed "
      ],
      [
        "m",
        "is"
      ],
      [
        "bo",
        "y"
      ],
      [
        "s ",
        "of "
      ],
      [
        "re",
        "as"
      ],
      [
        "pla",
        "y "
      ],
      [
        "I ",
        "don't "
      ],
      [
        "3",
        " "
      ],
      [
        "as",
        "s"
      ],
      [
        "rea",
        "d "
      ],
      [
        "\"",
        "B"
      ],
      [
        "sa",
        "me "
      ],
      [
        "d",
        "ing "
      ],
      [
        "om",
        "e "
      ],
      [
        "a",
        "g"
      ],
      [
        "ex",
        "peri"
      ],
      [
        "l",
        "u"
      ],
      [
        "ou",
        "s"
      ],
      [
        "I ",
        "was "
      ],
      [
        "5",
        " "
      ],
      [
        "m",
        "y"
      ],
      [
        ". ",
        "B"
      ],
      [
        "c",
        "ur"
      ],
      [
        "de",
        "c"
      ],
      [
        "do ",
        "I "
      ],
      [
        "a",
        "m"
      ],
      [
        "b",
        "r"
      ],
      [
        "t",
        "oo"
      ],
      [
        "a l",
        "ot "
      ],
      [
        "c",
        "or"
      ],
      [
        ". ",
        "N"
      ],
      [
        "prob",
        "le"
      ],
      [
        "l",
        "y"
      ],
      [
        "wa",
        "ys "
      ],
      [
        "o",
        "p "
      ],
      [
        "b",
        "rea"
      ],
      [
        "f ",
        "you "
      ],
      [
        "frien",
        "ds "
      ],
      [
        "out ",
        "of "
      ],
      [
        "tr",
        "y"
      ],
      [
        "e",
        "m "
      ],
      [
        "with ",
        "the "
      ],
      [
        "p",
        "on"
      ],
      [
        "g",
        "en"
      ],
      [
        "s",
        "k"
      ],
      [
        "un",
        "der"
      ],
      [
        "le",
        "ar"
      ],
      [
        "p",
        "r"
      ],
      [
        "es",
        "e "
      ],
      [
        "fu",
        "l "
      ],
      [
        " EDIT",
        ": "
      ],
      [
        "s",
        "it"
      ],
      [
        "in",
        "st"
      ],
      [
        "ne",
        "ed to "
      ],
      [
        "is",
        "n't "
      ],
      [
        "i",
        "on"
      ],
      [
        "s",
        "choo"
      ],
      [
        "le",
        "t "
      ],
      [
        "l",
        "at"
      ],
      [
        "d",
        "y "
      ],
      [
        "li",
        "fe "
      ],
      [
        "h",
        "u"
      ],
      [
        "an",
        "t"
      ],
      [
        "I ",
        "am "
      ],
      [
        ";",
        " "
      ],
      [
        "da",
        "y "
      ],
      [
        "D",
        " "
      ],
      [
        "as ",
        "a "
      ],
      [
        "b",
        "as"
      ],
      [
        "o",
        "ther"
      ],
      [
        "do",
        "es "
      ],
      [
        "gu",
        "y "
      ],
      [
        "c",
        "ol"
      ],
      [
        "si",
        "on"
      ],
      [
        "o",
        "b"
      ],
      [
        "ke",
        "ep "
      ],
      [
        "di",
        "d "
      ],
      [
        "thr",
        "ough "
      ],
      [
        "i",
        "st"
      ],
      [
        "d",
        "it "
      ],
      [
        "sel",
        "f"
      ],
      [
        "relationshi",
        "p "
      ],
      [
        "ne",
        "ed"
      ],
      [
        "sh",
        "it "
      ],
      [
        "par",
        "t"
      ],
      [
        "t",
        "re"
      ],
      [
        "T",
        " "
      ],
      [
        "m",
        "il"
      ],
      [
        "prob",
        "ably "
      ],
      [
        "or",
        "t "
      ],
      [
        "d",
        "own "
      ],
      [
        "tw",
        "o "
      ],
      [
        "le",
        "ase "
      ],
      [
        "mon",
        "th"
      ],
      [
        "is",
        "su"
      ],
      [
        "an",
        "ce "
      ],
      [
        "k",
        "now"
      ],
      [
        "ma",
        "y "
      ],
      [
        "w",
        "at"
      ],
      [
        "ar",
        "i"
      ],
      [
        "mi",
        "ght "
      ],
      [
        "t",
        "ell "
      ],
      [
        "at ",
        "the "
      ],
      [
        "it",
        ", "
      ],
      [
        "n",
        "ing "
      ],
      [
        "e",
        "as"
      ],
      [
        "s",
        "c"
      ],
      [
        "re",
        "d"
      ],
      [
        "ti",
        "v"
      ],
      [
        "\"",
        "My "
      ],
      [
        "actu",
        "ally "
      ],
      [
        "at",
        "t"
      ],
      [
        "u",
        "t "
      ],
      [
        "l",
        "ow"
      ],
      [
        "!",
        "\n"
      ],
      [
        "es ",
        "and "
      ],
      [
        "I ",
        "have "
      ],
      [
        "n",
        "d "
      ],
      [
        "e",
        ".\n"
      ],
      [
        "to ",
        "get "
      ],
      [
        "ed",
        ", "
      ],
      [
        "j",
        "e"
      ],
      [
        "\"",
        "A"
      ],
      [
        "en",
        "'t "
      ],
      [
        "a ",
        "c"
      ],
      [
        "in",
        "ce "
      ],
      [
        "in ",
        "my "
      ],
      [
        ")",
        "\"\n"
      ],
      [
        " ",
        "P"
      ],
      [
        "an",
        "s"
      ],
      [
        "po",
        "in"
      ],
      [
        "e ",
        "and "
      ],
      [
        "qu",
        "es"
      ],
      [
        "su",
        "b"
      ],
      [
        "m",
        "er"
      ],
      [
        "ha",
        "ving "
      ],
      [
        "k",
        "in"
      ],
      [
        "wan",
        "ts "
      ],
      [
        "a",
        "ge "
      ],
      [
        "wh",
        "y "
      ],
      [
        "y",
        ".\n"
      ],
      [
        "try",
        "ing to "
      ],
      [
        "pos",
        "si"
      ],
      [
        "us",
        "ed "
      ],
      [
        "\"",
        "H"
      ],
      [
        "C",
        "h"
      ],
      [
        "ma",
        "kes "
      ],
      [
        "ga",
        "me"
      ],
      [
        "f",
        "t "
      ],
      [
        "c",
        "king "
      ],
      [
        "l",
        "ong "
      ],
      [
        "n",
        "ed "
      ],
      [
        "oul",
        "dn't "
      ],
      [
        "any",
        "thing "
      ],
      [
        "li",
        "fe"
      ],
      [
        "ma",
        "king "
      ],
      [
        "itt",
        "le "
      ],
      [
        "si",
        "on "
      ],
      [
        "at",
        "e"
      ],
      [
        "m",
        "any "
      ],
      [
        "se",
        "x"
      ],
      [
        "po",
        "st"
      ],
      [
        "re",
        "al"
      ],
      [
        "'",
        "ll "
      ],
      [
        "li",
        "c"
      ],
      [
        "\"",
        "M"
      ],
      [
        "m",
        "an "
      ],
      [
        "y",
        "s"
      ],
      [
        "i",
        "ll "
      ],
      [
        "es ",
        "to "
      ],
      [
        "sa",
        "y "
      ],
      [
        "with ",
        "my "
      ],
      [
        "\"",
        "F"
      ],
      [
        "ce",
        "p"
      ],
      [
        "b",
        "ad "
      ],
      [
        "bo",
        "th "
      ],
      [
        "er",
        ", "
      ],
      [
        "ever",
        "y "
      ],
      [
        "t",
        "y"
      ],
      [
        "it",
        ".\"\n"
      ],
      [
        "ar",
        "ound "
      ],
      [
        " ",
        "I"
      ],
      [
        "s",
        "ed "
      ],
      [
        "happ",
        "en"
      ],
      [
        "pers",
        "on"
      ],
      [
        "fe",
        "w "
      ],
      [
        "tr",
        "u"
      ],
      [
        "m",
        "es"
      ],
      [
        "4",
        " "
      ],
      [
        "do",
        "ing "
      ],
      [
        "v",
        "el"
      ],
      [
        "n",
        "or"
      ],
      [
        "loo",
        "king "
      ],
      [
        "b",
        "oo"
      ],
      [
        "pu",
        "t "
      ],
      [
        "n",
        "u"
      ],
      [
        "that ",
        "I "
      ],
      [
        "a",
        "u"
      ],
      [
        "ch",
        "ar"
      ],
      [
        "c",
        "er"
      ],
      [
        "1",
        " "
      ],
      [
        "s",
        "m"
      ],
      [
        "tt",
        "y "
      ],
      [
        "it ",
        "is "
      ],
      [
        "gre",
        "at "
      ],
      [
        "fu",
        "l"
      ],
      [
        "sa",
        "id "
      ],
      [
        "b",
        "est "
      ],
      [
        ". ",
        "T"
      ],
      [
        "b",
        "eli"
      ],
      [
        "as",
        "s "
      ],
      [
        "on ",
        "a "
      ],
      [
        "relationshi",
        "p"
      ],
      [
        "any",
        "one "
      ],
      [
        "o",
        "le "
      ],
      [
        "p",
        "er "
      ],
      [
        "us",
        "h"
      ],
      [
        "h",
        "op"
      ],
      [
        "would ",
        "be "
      ],
      [
        "w",
        "om"
      ],
      [
        "P",
        " "
      ],
      [
        "d",
        "r"
      ],
      [
        "re",
        "d "
      ],
      [
        "to ",
        "do "
      ],
      [
        "year",
        "s "
      ],
      [
        "s",
        "ol"
      ],
      [
        "c",
        "oun"
      ],
      [
        "differ",
        "ent "
      ],
      [
        "an",
        "other "
      ],
      [
        "W",
        "hat "
      ],
      [
        "ent",
        "ly "
      ],
      [
        "ent",
        "s "
      ],
      [
        "of ",
        "a "
      ],
      [
        "st",
        "op "
      ],
      [
        "an",
        "s "
      ],
      [
        "!",
        " "
      ],
      [
        "th",
        "ose "
      ],
      [
        "\"",
        "C"
      ],
      [
        "h",
        "ear"
      ],
      [
        "c",
        "ha"
      ],
      [
        "b",
        "ack"
      ],
      [
        "boy",
        "friend "
      ],
      [
        "m",
        "s "
      ],
      [
        "d",
        "own"
      ],
[...]
